#ifndef SIAMESEMODEL_V5_LITE_H
#define SIAMESEMODEL_V5_LITE_H


unsigned int siamesemodel_v5_lite_len = 608801476;
unsigned char siamesemodel_v5_lite[] = {
 0x1c, 0x00, 0x00, 0x00, 0x54, 0x46, 0x4c, 0x33, 0x14, 0x00, 0x20, 0x00,
  0x04, 0x00, 0x08, 0x00, 0x0c, 0x00, 0x10, 0x00, 0x14, 0x00, 0x00, 0x00,
  0x18, 0x00, 0x1c, 0x00, 0x14, 0x00, 0x00, 0x00, 0x03, 0x00, 0x00, 0x00,
  0x18, 0x00, 0x00, 0x00, 0x34, 0x00, 0x00, 0x00, 0x34, 0x01, 0x00, 0x00,
  0x34, 0x00, 0x00, 0x00, 0xdc, 0x00, 0x00, 0x00, 0xd4, 0x00, 0x00, 0x00,
  0x07, 0x00, 0x00, 0x00, 0x48, 0x1a, 0x00, 0x00, 0x58, 0x19, 0x00, 0x00,
  0x68, 0x10, 0x00, 0x00, 0x9c, 0x0f, 0x00, 0x00, 0xf4, 0x0e, 0x00, 0x00,
  0x30, 0x04, 0x00, 0x00, 0x98, 0x03, 0x00, 0x00, 0x01, 0x00, 0x00, 0x00,
  0x24, 0x01, 0x00, 0x00, 0x29, 0x00, 0x00, 0x00, 0x58, 0x92, 0x49, 0x24,
  0x54, 0x92, 0x49, 0x24, 0x50, 0x92, 0x49, 0x24, 0x0c, 0x91, 0x49, 0x24,
  0x8c, 0x50, 0x49, 0x24, 0x10, 0x50, 0x49, 0x24, 0xb8, 0x0f, 0x49, 0x24,
  0x80, 0x0d, 0x49, 0x24, 0x10, 0x0a, 0x49, 0x24, 0xcc, 0x06, 0x49, 0x24,
  0x68, 0x06, 0x49, 0x00, 0xfc, 0xa1, 0x48, 0x00, 0x90, 0x21, 0x30, 0x00,
  0x24, 0x21, 0x20, 0x00, 0xb8, 0x20, 0x00, 0x00, 0xd0, 0x1b, 0x00, 0x00,
  0x18, 0x92, 0x49, 0x24, 0x14, 0x92, 0x49, 0x24, 0x10, 0x92, 0x49, 0x24,
  0x0c, 0x92, 0x49, 0x24, 0x08, 0x92, 0x49, 0x24, 0x04, 0x92, 0x49, 0x24,
  0x00, 0x92, 0x49, 0x24, 0xfc, 0x91, 0x49, 0x24, 0xf8, 0x91, 0x49, 0x24,
  0xf4, 0x91, 0x49, 0x24, 0xf0, 0x91, 0x49, 0x24, 0xec, 0x91, 0x49, 0x24,
  0xe8, 0x91, 0x49, 0x24, 0xe4, 0x91, 0x49, 0x24, 0xe0, 0x91, 0x49, 0x24,
  0xdc, 0x91, 0x49, 0x24, 0xd8, 0x91, 0x49, 0x24, 0xd4, 0x91, 0x49, 0x24,
  0xd0, 0x91, 0x49, 0x24, 0xcc, 0x91, 0x49, 0x24, 0xc8, 0x91, 0x49, 0x24,
  0xc4, 0x91, 0x49, 0x24, 0xc0, 0x91, 0x49, 0x24, 0xbc, 0x91, 0x49, 0x24,
  0x3c, 0x00, 0x00, 0x00, 0x00, 0x00, 0x00, 0x00, 0x01, 0x00, 0x00, 0x00,
  0x0c, 0x00, 0x00, 0x00, 0x08, 0x00, 0x0c, 0x00, 0x04, 0x00, 0x08, 0x00,
  0x08, 0x00, 0x00, 0x00, 0x08, 0x00, 0x00, 0x00, 0x28, 0x00, 0x00, 0x00,
  0x13, 0x00, 0x00, 0x00, 0x6d, 0x69, 0x6e, 0x5f, 0x72, 0x75, 0x6e, 0x74,
  0x69, 0x6d, 0x65, 0x5f, 0x76, 0x65, 0x72, 0x73, 0x69, 0x6f, 0x6e, 0x00,
  0xca, 0x6f, 0xb6, 0xdb, 0x04, 0x00, 0x00, 0x00, 0x10, 0x00, 0x00, 0x00,
  0x31, 0x2e, 0x31, 0x34, 0x2e, 0x30, 0x00, 0x00, 0x00, 0x00, 0x00, 0x00,
  0x00, 0x00, 0x00, 0x00, 0x0f, 0x00, 0x00, 0x00, 0x4d, 0x4c, 0x49, 0x52,
  0x20, 0x43, 0x6f, 0x6e, 0x76, 0x65, 0x72, 0x74, 0x65, 0x64, 0x2e, 0x00,
  0x00, 0x00, 0x0e, 0x00, 0x18, 0x00, 0x04, 0x00, 0x08, 0x00, 0x0c, 0x00,
  0x10, 0x00, 0x14, 0x00, 0x0e, 0x00, 0x00, 0x00, 0x14, 0x00, 0x00, 0x00,
  0xb0, 0x00, 0x00, 0x00, 0xb8, 0x00, 0x00, 0x00, 0xbc, 0x00, 0x00, 0x00,
  0x1c, 0x01, 0x00, 0x00, 0x27, 0x00, 0x00, 0x00, 0xc8, 0x90, 0x49, 0x24,
  0x58, 0x90, 0x49, 0x24, 0xf8, 0x8f, 0x49, 0x24, 0x64, 0x8f, 0x49, 0x24,
  0x00, 0x4f, 0x49, 0x24, 0x90, 0x4e, 0x49, 0x24, 0x58, 0x0d, 0x49, 0x24,
  0xe8, 0x0a, 0x49, 0x24, 0xa4, 0x07, 0x49, 0x24, 0x40, 0x05, 0x49, 0x24,
  0xd4, 0x04, 0x49, 0x00, 0x68, 0xa0, 0x48, 0x00, 0xfc, 0x1f, 0x30, 0x00,
  0x90, 0x1f, 0x20, 0x00, 0xa8, 0x1e, 0x00, 0x00, 0xbc, 0x18, 0x00, 0x00,
  0xcc, 0x17, 0x00, 0x00, 0x40, 0x15, 0x00, 0x00, 0x84, 0x14, 0x00, 0x00,
  0x44, 0x12, 0x00, 0x00, 0x88, 0x11, 0x00, 0x00, 0x84, 0x0f, 0x00, 0x00,
  0xc8, 0x0e, 0x00, 0x00, 0xfc, 0x0d, 0x00, 0x00, 0x54, 0x0d, 0x00, 0x00,
  0xd4, 0x0b, 0x00, 0x00, 0x18, 0x0b, 0x00, 0x00, 0x50, 0x09, 0x00, 0x00,
  0x94, 0x08, 0x00, 0x00, 0xf8, 0x06, 0x00, 0x00, 0x3c, 0x06, 0x00, 0x00,
  0xd0, 0x04, 0x00, 0x00, 0x30, 0x04, 0x00, 0x00, 0x7c, 0x03, 0x00, 0x00,
  0xe0, 0x02, 0x00, 0x00, 0x68, 0x02, 0x00, 0x00, 0xd0, 0x01, 0x00, 0x00,
  0x24, 0x01, 0x00, 0x00, 0xa8, 0x00, 0x00, 0x00, 0x02, 0x00, 0x00, 0x00,
  0x00, 0x00, 0x00, 0x00, 0x01, 0x00, 0x00, 0x00, 0x01, 0x00, 0x00, 0x00,
  0x26, 0x00, 0x00, 0x00, 0x18, 0x00, 0x00, 0x00, 0xe0, 0x17, 0x00, 0x00,
  0xf4, 0x16, 0x00, 0x00, 0x8c, 0x14, 0x00, 0x00, 0xcc, 0x13, 0x00, 0x00,
  0x90, 0x11, 0x00, 0x00, 0xd0, 0x10, 0x00, 0x00, 0xc8, 0x0e, 0x00, 0x00,
  0x1c, 0x0e, 0x00, 0x00, 0x40, 0x0d, 0x00, 0x00, 0xac, 0x0c, 0x00, 0x00,
  0x20, 0x0b, 0x00, 0x00, 0x60, 0x0a, 0x00, 0x00, 0x9c, 0x08, 0x00, 0x00,
  0xdc, 0x07, 0x00, 0x00, 0x44, 0x06, 0x00, 0x00, 0x84, 0x05, 0x00, 0x00,
  0x20, 0x04, 0x00, 0x00, 0x94, 0x03, 0x00, 0x00, 0xd0, 0x02, 0x00, 0x00,
  0x48, 0x02, 0x00, 0x00, 0xb0, 0x01, 0x00, 0x00, 0x28, 0x01, 0x00, 0x00,
  0x78, 0x00, 0x00, 0x00, 0x10, 0x00, 0x00, 0x00, 0x04, 0x00, 0x00, 0x00,
  0x6d, 0x61, 0x69, 0x6e, 0x00, 0x00, 0x00, 0x00, 0x3e, 0xf2, 0xff, 0xff,
  0x04, 0x00, 0x00, 0x00, 0x10, 0x00, 0x00, 0x00, 0x04, 0x00, 0x00, 0x00,
  0x01, 0x00, 0x00, 0x00, 0x26, 0x00, 0x00, 0x00, 0x01, 0x00, 0x00, 0x00,
  0x25, 0x00, 0x00, 0x00, 0x8c, 0x70, 0xb6, 0xdb, 0x14, 0x00, 0x00, 0x00,
  0x27, 0x00, 0x00, 0x00, 0x18, 0x00, 0x00, 0x00, 0x30, 0x00, 0x00, 0x00,
  0x20, 0x00, 0x00, 0x00, 0x02, 0x00, 0x00, 0x00, 0x01, 0x00, 0x00, 0x00,
  0x01, 0x00, 0x00, 0x00, 0x08, 0x00, 0x00, 0x00, 0x49, 0x64, 0x65, 0x6e,
  0x74, 0x69, 0x74, 0x79, 0x00, 0x00, 0x00, 0x00, 0x02, 0x00, 0x00, 0x00,
  0xff, 0xff, 0xff, 0xff, 0x01, 0x00, 0x00, 0x00, 0x64, 0x70, 0xb6, 0xdb,
  0x06, 0xed, 0xff, 0xff, 0x00, 0x00, 0x00, 0x08, 0x03, 0x00, 0x00, 0x00,
  0x18, 0x00, 0x00, 0x00, 0x0c, 0x00, 0x00, 0x00, 0x04, 0x00, 0x00, 0x00,
  0x80, 0x70, 0xb6, 0xdb, 0x01, 0x00, 0x00, 0x00, 0x25, 0x00, 0x00, 0x00,
  0x03, 0x00, 0x00, 0x00, 0x24, 0x00, 0x00, 0x00, 0x05, 0x00, 0x00, 0x00,
  0x02, 0x00, 0x00, 0x00, 0x04, 0x71, 0xb6, 0xdb, 0x14, 0x00, 0x00, 0x00,
  0x26, 0x00, 0x00, 0x00, 0x18, 0x00, 0x00, 0x00, 0x64, 0x00, 0x00, 0x00,
  0x54, 0x00, 0x00, 0x00, 0x02, 0x00, 0x00, 0x00, 0x01, 0x00, 0x00, 0x00,
  0x01, 0x00, 0x00, 0x00, 0x3c, 0x00, 0x00, 0x00, 0x53, 0x69, 0x61, 0x6d,
  0x65, 0x73, 0x65, 0x4e, 0x65, 0x74, 0x77, 0x6f, 0x72, 0x6b, 0x2f, 0x64,
  0x65, 0x6e, 0x73, 0x65, 0x5f, 0x31, 0x2f, 0x4d, 0x61, 0x74, 0x4d, 0x75,
  0x6c, 0x3b, 0x53, 0x69, 0x61, 0x6d, 0x65, 0x73, 0x65, 0x4e, 0x65, 0x74,
  0x77, 0x6f, 0x72, 0x6b, 0x2f, 0x64, 0x65, 0x6e, 0x73, 0x65, 0x5f, 0x31,
  0x2f, 0x42, 0x69, 0x61, 0x73, 0x41, 0x64, 0x64, 0x00, 0x00, 0x00, 0x00,
  0x02, 0x00, 0x00, 0x00, 0xff, 0xff, 0xff, 0xff, 0x01, 0x00, 0x00, 0x00,
  0x10, 0x71, 0xb6, 0xdb, 0x4e, 0xf3, 0xff, 0xff, 0x06, 0x00, 0x00, 0x00,
  0x10, 0x00, 0x00, 0x00, 0x04, 0x00, 0x00, 0x00, 0x01, 0x00, 0x00, 0x00,
  0x24, 0x00, 0x00, 0x00, 0x01, 0x00, 0x00, 0x00, 0x23, 0x00, 0x00, 0x00,
  0x74, 0xe9, 0xff, 0xff, 0x65, 0x00, 0x00, 0x00, 0x00, 0x00, 0x00, 0x65,
  0x01, 0x00, 0x00, 0x00, 0xac, 0x71, 0xb6, 0xdb, 0x14, 0x00, 0x00, 0x00,
  0x25, 0x00, 0x00, 0x00, 0x18, 0x00, 0x00, 0x00, 0x40, 0x00, 0x00, 0x00,
  0x30, 0x00, 0x00, 0x00, 0x02, 0x00, 0x00, 0x00, 0x01, 0x00, 0x00, 0x00,
  0x00, 0x10, 0x00, 0x00, 0x1b, 0x00, 0x00, 0x00, 0x53, 0x69, 0x61, 0x6d,
  0x65, 0x73, 0x65, 0x4e, 0x65, 0x74, 0x77, 0x6f, 0x72, 0x6b, 0x2f, 0x64,
  0x69, 0x73, 0x74, 0x61, 0x6e, 0x63, 0x65, 0x2f, 0x41, 0x62, 0x73, 0x00,
  0x02, 0x00, 0x00, 0x00, 0xff, 0xff, 0xff, 0xff, 0x00, 0x10, 0x00, 0x00,
  0x94, 0x71, 0xb6, 0xdb, 0x36, 0xee, 0xff, 0xff, 0x00, 0x00, 0x00, 0x1c,
  0x05, 0x00, 0x00, 0x00, 0x18, 0x00, 0x00, 0x00, 0x0c, 0x00, 0x00, 0x00,
  0x04, 0x00, 0x00, 0x00, 0xb0, 0x71, 0xb6, 0xdb, 0x01, 0x00, 0x00, 0x00,
  0x23, 0x00, 0x00, 0x00, 0x02, 0x00, 0x00, 0x00, 0x18, 0x00, 0x00, 0x00,
  0x22, 0x00, 0x00, 0x00, 0x08, 0xea, 0xff, 0xff, 0x29, 0x00, 0x00, 0x00,
  0x00, 0x00, 0x00, 0x29, 0x01, 0x00, 0x00, 0x00, 0x40, 0x72, 0xb6, 0xdb,
  0x14, 0x00, 0x00, 0x00, 0x24, 0x00, 0x00, 0x00, 0x18, 0x00, 0x00, 0x00,
  0x40, 0x00, 0x00, 0x00, 0x30, 0x00, 0x00, 0x00, 0x02, 0x00, 0x00, 0x00,
  0x01, 0x00, 0x00, 0x00, 0x00, 0x10, 0x00, 0x00, 0x1b, 0x00, 0x00, 0x00,
  0x53, 0x69, 0x61, 0x6d, 0x65, 0x73, 0x65, 0x4e, 0x65, 0x74, 0x77, 0x6f,
  0x72, 0x6b, 0x2f, 0x64, 0x69, 0x73, 0x74, 0x61, 0x6e, 0x63, 0x65, 0x2f,
  0x73, 0x75, 0x62, 0x00, 0x02, 0x00, 0x00, 0x00, 0xff, 0xff, 0xff, 0xff,
  0x00, 0x10, 0x00, 0x00, 0x28, 0x72, 0xb6, 0xdb, 0x66, 0xf4, 0xff, 0xff,
  0x04, 0x00, 0x00, 0x00, 0x10, 0x00, 0x00, 0x00, 0x04, 0x00, 0x00, 0x00,
  0x01, 0x00, 0x00, 0x00, 0x22, 0x00, 0x00, 0x00, 0x01, 0x00, 0x00, 0x00,
  0x21, 0x00, 0x00, 0x00, 0xb4, 0x72, 0xb6, 0xdb, 0x14, 0x00, 0x00, 0x00,
  0x23, 0x00, 0x00, 0x00, 0x18, 0x00, 0x00, 0x00, 0x50, 0x00, 0x00, 0x00,
  0x40, 0x00, 0x00, 0x00, 0x02, 0x00, 0x00, 0x00, 0x01, 0x00, 0x00, 0x00,
  0x00, 0x10, 0x00, 0x00, 0x29, 0x00, 0x00, 0x00, 0x53, 0x69, 0x61, 0x6d,
  0x65, 0x73, 0x65, 0x4e, 0x65, 0x74, 0x77, 0x6f, 0x72, 0x6b, 0x2f, 0x73,
  0x65, 0x71, 0x75, 0x65, 0x6e, 0x74, 0x69, 0x61, 0x6c, 0x2f, 0x64, 0x65,
  0x6e, 0x73, 0x65, 0x2f, 0x53, 0x69, 0x67, 0x6d, 0x6f, 0x69, 0x64, 0x5f,
  0x31, 0x00, 0x00, 0x00, 0x02, 0x00, 0x00, 0x00, 0xff, 0xff, 0xff, 0xff,
  0x00, 0x10, 0x00, 0x00, 0xac, 0x72, 0xb6, 0xdb, 0x4e, 0xef, 0xff, 0xff,
  0x00, 0x00, 0x00, 0x08, 0x03, 0x00, 0x00, 0x00, 0x18, 0x00, 0x00, 0x00,
  0x0c, 0x00, 0x00, 0x00, 0x04, 0x00, 0x00, 0x00, 0xc8, 0x72, 0xb6, 0xdb,
  0x01, 0x00, 0x00, 0x00, 0x21, 0x00, 0x00, 0x00, 0x03, 0x00, 0x00, 0x00,
  0x20, 0x00, 0x00, 0x00, 0x09, 0x00, 0x00, 0x00, 0x03, 0x00, 0x00, 0x00,
  0x4c, 0x73, 0xb6, 0xdb, 0x14, 0x00, 0x00, 0x00, 0x22, 0x00, 0x00, 0x00,
  0x18, 0x00, 0x00, 0x00, 0x78, 0x00, 0x00, 0x00, 0x68, 0x00, 0x00, 0x00,
  0x02, 0x00, 0x00, 0x00, 0x01, 0x00, 0x00, 0x00, 0x00, 0x10, 0x00, 0x00,
  0x52, 0x00, 0x00, 0x00, 0x53, 0x69, 0x61, 0x6d, 0x65, 0x73, 0x65, 0x4e,
  0x65, 0x74, 0x77, 0x6f, 0x72, 0x6b, 0x2f, 0x73, 0x65, 0x71, 0x75, 0x65,
  0x6e, 0x74, 0x69, 0x61, 0x6c, 0x2f, 0x64, 0x65, 0x6e, 0x73, 0x65, 0x2f,
  0x4d, 0x61, 0x74, 0x4d, 0x75, 0x6c, 0x5f, 0x31, 0x3b, 0x53, 0x69, 0x61,
  0x6d, 0x65, 0x73, 0x65, 0x4e, 0x65, 0x74, 0x77, 0x6f, 0x72, 0x6b, 0x2f,
  0x73, 0x65, 0x71, 0x75, 0x65, 0x6e, 0x74, 0x69, 0x61, 0x6c, 0x2f, 0x64,
  0x65, 0x6e, 0x73, 0x65, 0x2f, 0x42, 0x69, 0x61, 0x73, 0x41, 0x64, 0x64,
  0x5f, 0x31, 0x00, 0x00, 0x02, 0x00, 0x00, 0x00, 0xff, 0xff, 0xff, 0xff,
  0x00, 0x10, 0x00, 0x00, 0x6c, 0x73, 0xb6, 0xdb, 0xaa, 0xf5, 0xff, 0xff,
  0x02, 0x00, 0x00, 0x00, 0x10, 0x00, 0x00, 0x00, 0x04, 0x00, 0x00, 0x00,
  0x01, 0x00, 0x00, 0x00, 0x20, 0x00, 0x00, 0x00, 0x02, 0x00, 0x00, 0x00,
  0x1f, 0x00, 0x00, 0x00, 0x04, 0x00, 0x00, 0x00, 0xfc, 0x73, 0xb6, 0xdb,
  0x14, 0x00, 0x00, 0x00, 0x21, 0x00, 0x00, 0x00, 0x18, 0x00, 0x00, 0x00,
  0x50, 0x00, 0x00, 0x00, 0x40, 0x00, 0x00, 0x00, 0x02, 0x00, 0x00, 0x00,
  0x01, 0x00, 0x00, 0x00, 0x00, 0x90, 0x00, 0x00, 0x2b, 0x00, 0x00, 0x00,
  0x53, 0x69, 0x61, 0x6d, 0x65, 0x73, 0x65, 0x4e, 0x65, 0x74, 0x77, 0x6f,
  0x72, 0x6b, 0x2f, 0x73, 0x65, 0x71, 0x75, 0x65, 0x6e, 0x74, 0x69, 0x61,
  0x6c, 0x2f, 0x66, 0x6c, 0x61, 0x74, 0x74, 0x65, 0x6e, 0x2f, 0x52, 0x65,
  0x73, 0x68, 0x61, 0x70, 0x65, 0x5f, 0x31, 0x00, 0x02, 0x00, 0x00, 0x00,
  0xff, 0xff, 0xff, 0xff, 0x00, 0x90, 0x00, 0x00, 0xf4, 0x73, 0xb6, 0xdb,
  0x8e, 0xec, 0xff, 0xff, 0x00, 0x00, 0x00, 0x01, 0x20, 0x00, 0x00, 0x00,
  0x14, 0x00, 0x00, 0x00, 0x04, 0x00, 0x00, 0x00, 0x7e, 0xf5, 0xff, 0xff,
  0x01, 0x00, 0x00, 0x00, 0x01, 0x00, 0x00, 0x00, 0x01, 0x00, 0x00, 0x00,
  0x1f, 0x00, 0x00, 0x00, 0x03, 0x00, 0x00, 0x00, 0x1e, 0x00, 0x00, 0x00,
  0x0d, 0x00, 0x00, 0x00, 0x0e, 0x00, 0x00, 0x00, 0x98, 0x74, 0xb6, 0xdb,
  0x14, 0x00, 0x00, 0x00, 0x20, 0x00, 0x00, 0x00, 0x20, 0x00, 0x00, 0x00,
  0x14, 0x01, 0x00, 0x00, 0xfc, 0x00, 0x00, 0x00, 0x04, 0x00, 0x00, 0x00,
  0x01, 0x00, 0x00, 0x00, 0x0c, 0x00, 0x00, 0x00, 0x0c, 0x00, 0x00, 0x00,
  0x00, 0x01, 0x00, 0x00, 0xde, 0x00, 0x00, 0x00, 0x53, 0x69, 0x61, 0x6d,
  0x65, 0x73, 0x65, 0x4e, 0x65, 0x74, 0x77, 0x6f, 0x72, 0x6b, 0x2f, 0x73,
  0x65, 0x71, 0x75, 0x65, 0x6e, 0x74, 0x69, 0x61, 0x6c, 0x2f, 0x62, 0x61,
  0x74, 0x63, 0x68, 0x5f, 0x6e, 0x6f, 0x72, 0x6d, 0x61, 0x6c, 0x69, 0x7a,
  0x61, 0x74, 0x69, 0x6f, 0x6e, 0x5f, 0x33, 0x2f, 0x46, 0x75, 0x73, 0x65,
  0x64, 0x42, 0x61, 0x74, 0x63, 0x68, 0x4e, 0x6f, 0x72, 0x6d, 0x56, 0x33,
  0x5f, 0x31, 0x3b, 0x53, 0x69, 0x61, 0x6d, 0x65, 0x73, 0x65, 0x4e, 0x65,
  0x74, 0x77, 0x6f, 0x72, 0x6b, 0x2f, 0x73, 0x65, 0x71, 0x75, 0x65, 0x6e,
  0x74, 0x69, 0x61, 0x6c, 0x2f, 0x63, 0x6f, 0x6e, 0x76, 0x32, 0x64, 0x5f,
  0x33, 0x2f, 0x42, 0x69, 0x61, 0x73, 0x41, 0x64, 0x64, 0x2f, 0x52, 0x65,
  0x61, 0x64, 0x56, 0x61, 0x72, 0x69, 0x61, 0x62, 0x6c, 0x65, 0x4f, 0x70,
  0x2f, 0x72, 0x65, 0x73, 0x6f, 0x75, 0x72, 0x63, 0x65, 0x3b, 0x53, 0x69,
  0x61, 0x6d, 0x65, 0x73, 0x65, 0x4e, 0x65, 0x74, 0x77, 0x6f, 0x72, 0x6b,
  0x2f, 0x73, 0x65, 0x71, 0x75, 0x65, 0x6e, 0x74, 0x69, 0x61, 0x6c, 0x2f,
  0x63, 0x6f, 0x6e, 0x76, 0x32, 0x64, 0x5f, 0x33, 0x2f, 0x42, 0x69, 0x61,
  0x73, 0x41, 0x64, 0x64, 0x5f, 0x31, 0x3b, 0x53, 0x69, 0x61, 0x6d, 0x65,
  0x73, 0x65, 0x4e, 0x65, 0x74, 0x77, 0x6f, 0x72, 0x6b, 0x2f, 0x73, 0x65,
  0x71, 0x75, 0x65, 0x6e, 0x74, 0x69, 0x61, 0x6c, 0x2f, 0x63, 0x6f, 0x6e,
  0x76, 0x32, 0x64, 0x5f, 0x33, 0x2f, 0x43, 0x6f, 0x6e, 0x76, 0x32, 0x44,
  0x5f, 0x31, 0x00, 0x00, 0x04, 0x00, 0x00, 0x00, 0xff, 0xff, 0xff, 0xff,
  0x0c, 0x00, 0x00, 0x00, 0x0c, 0x00, 0x00, 0x00, 0x00, 0x01, 0x00, 0x00,
  0x54, 0x75, 0xb6, 0xdb, 0xf6, 0xf1, 0xff, 0xff, 0x00, 0x00, 0x00, 0x05,
  0x01, 0x00, 0x00, 0x00, 0x2c, 0x00, 0x00, 0x00, 0x20, 0x00, 0x00, 0x00,
  0x04, 0x00, 0x00, 0x00, 0xc6, 0xee, 0xff, 0xff, 0x02, 0x00, 0x00, 0x00,
  0x02, 0x00, 0x00, 0x00, 0x02, 0x00, 0x00, 0x00, 0x02, 0x00, 0x00, 0x00,
  0x00, 0x00, 0x00, 0x01, 0x01, 0x00, 0x00, 0x00, 0x1e, 0x00, 0x00, 0x00,
  0x01, 0x00, 0x00, 0x00, 0x1d, 0x00, 0x00, 0x00, 0x00, 0x76, 0xb6, 0xdb,
  0x14, 0x00, 0x00, 0x00, 0x1f, 0x00, 0x00, 0x00, 0x20, 0x00, 0x00, 0x00,
  0x68, 0x00, 0x00, 0x00, 0x50, 0x00, 0x00, 0x00, 0x04, 0x00, 0x00, 0x00,
  0x01, 0x00, 0x00, 0x00, 0x0c, 0x00, 0x00, 0x00, 0x0c, 0x00, 0x00, 0x00,
  0x80, 0x00, 0x00, 0x00, 0x33, 0x00, 0x00, 0x00, 0x53, 0x69, 0x61, 0x6d,
  0x65, 0x73, 0x65, 0x4e, 0x65, 0x74, 0x77, 0x6f, 0x72, 0x6b, 0x2f, 0x73,
  0x65, 0x71, 0x75, 0x65, 0x6e, 0x74, 0x69, 0x61, 0x6c, 0x2f, 0x6d, 0x61,
  0x78, 0x5f, 0x70, 0x6f, 0x6f, 0x6c, 0x69, 0x6e, 0x67, 0x32, 0x64, 0x5f,
  0x32, 0x2f, 0x4d, 0x61, 0x78, 0x50, 0x6f, 0x6f, 0x6c, 0x5f, 0x31, 0x00,
  0x04, 0x00, 0x00, 0x00, 0xff, 0xff, 0xff, 0xff, 0x0c, 0x00, 0x00, 0x00,
  0x0c, 0x00, 0x00, 0x00, 0x80, 0x00, 0x00, 0x00, 0x10, 0x76, 0xb6, 0xdb,
  0xaa, 0xee, 0xff, 0xff, 0x00, 0x00, 0x00, 0x01, 0x24, 0x00, 0x00, 0x00,
  0x18, 0x00, 0x00, 0x00, 0x04, 0x00, 0x00, 0x00, 0x9c, 0xee, 0xff, 0xff,
  0x01, 0x00, 0x00, 0x00, 0x01, 0x00, 0x00, 0x00, 0x00, 0x00, 0x00, 0x01,
  0x01, 0x00, 0x00, 0x00, 0x1d, 0x00, 0x00, 0x00, 0x03, 0x00, 0x00, 0x00,
  0x1c, 0x00, 0x00, 0x00, 0x0c, 0x00, 0x00, 0x00, 0x08, 0x00, 0x00, 0x00,
  0xb8, 0x76, 0xb6, 0xdb, 0x14, 0x00, 0x00, 0x00, 0x1e, 0x00, 0x00, 0x00,
  0x20, 0x00, 0x00, 0x00, 0x44, 0x01, 0x00, 0x00, 0x2c, 0x01, 0x00, 0x00,
  0x04, 0x00, 0x00, 0x00, 0x01, 0x00, 0x00, 0x00, 0x19, 0x00, 0x00, 0x00,
  0x19, 0x00, 0x00, 0x00, 0x80, 0x00, 0x00, 0x00, 0x0d, 0x01, 0x00, 0x00,
  0x53, 0x69, 0x61, 0x6d, 0x65, 0x73, 0x65, 0x4e, 0x65, 0x74, 0x77, 0x6f,
  0x72, 0x6b, 0x2f, 0x73, 0x65, 0x71, 0x75, 0x65, 0x6e, 0x74, 0x69, 0x61,
  0x6c, 0x2f, 0x61, 0x63, 0x74, 0x69, 0x76, 0x61, 0x74, 0x69, 0x6f, 0x6e,
  0x5f, 0x32, 0x2f, 0x52, 0x65, 0x6c, 0x75, 0x5f, 0x31, 0x3b, 0x53, 0x69,
  0x61, 0x6d, 0x65, 0x73, 0x65, 0x4e, 0x65, 0x74, 0x77, 0x6f, 0x72, 0x6b,
  0x2f, 0x73, 0x65, 0x71, 0x75, 0x65, 0x6e, 0x74, 0x69, 0x61, 0x6c, 0x2f,
  0x62, 0x61, 0x74, 0x63, 0x68, 0x5f, 0x6e, 0x6f, 0x72, 0x6d, 0x61, 0x6c,
  0x69, 0x7a, 0x61, 0x74, 0x69, 0x6f, 0x6e, 0x5f, 0x32, 0x2f, 0x46, 0x75,
  0x73, 0x65, 0x64, 0x42, 0x61, 0x74, 0x63, 0x68, 0x4e, 0x6f, 0x72, 0x6d,
  0x56, 0x33, 0x5f, 0x31, 0x3b, 0x53, 0x69, 0x61, 0x6d, 0x65, 0x73, 0x65,
  0x4e, 0x65, 0x74, 0x77, 0x6f, 0x72, 0x6b, 0x2f, 0x73, 0x65, 0x71, 0x75,
  0x65, 0x6e, 0x74, 0x69, 0x61, 0x6c, 0x2f, 0x63, 0x6f, 0x6e, 0x76, 0x32,
  0x64, 0x5f, 0x32, 0x2f, 0x42, 0x69, 0x61, 0x73, 0x41, 0x64, 0x64, 0x2f,
  0x52, 0x65, 0x61, 0x64, 0x56, 0x61, 0x72, 0x69, 0x61, 0x62, 0x6c, 0x65,
  0x4f, 0x70, 0x2f, 0x72, 0x65, 0x73, 0x6f, 0x75, 0x72, 0x63, 0x65, 0x3b,
  0x53, 0x69, 0x61, 0x6d, 0x65, 0x73, 0x65, 0x4e, 0x65, 0x74, 0x77, 0x6f,
  0x72, 0x6b, 0x2f, 0x73, 0x65, 0x71, 0x75, 0x65, 0x6e, 0x74, 0x69, 0x61,
  0x6c, 0x2f, 0x63, 0x6f, 0x6e, 0x76, 0x32, 0x64, 0x5f, 0x32, 0x2f, 0x42,
  0x69, 0x61, 0x73, 0x41, 0x64, 0x64, 0x5f, 0x31, 0x3b, 0x53, 0x69, 0x61,
  0x6d, 0x65, 0x73, 0x65, 0x4e, 0x65, 0x74, 0x77, 0x6f, 0x72, 0x6b, 0x2f,
  0x73, 0x65, 0x71, 0x75, 0x65, 0x6e, 0x74, 0x69, 0x61, 0x6c, 0x2f, 0x63,
  0x6f, 0x6e, 0x76, 0x32, 0x64, 0x5f, 0x32, 0x2f, 0x43, 0x6f, 0x6e, 0x76,
  0x32, 0x44, 0x5f, 0x31, 0x31, 0x00, 0x00, 0x00, 0x04, 0x00, 0x00, 0x00,
  0xff, 0xff, 0xff, 0xff, 0x19, 0x00, 0x00, 0x00, 0x19, 0x00, 0x00, 0x00,
  0x80, 0x00, 0x00, 0x00, 0xa4, 0x77, 0xb6, 0xdb, 0x46, 0xf4, 0xff, 0xff,
  0x00, 0x00, 0x00, 0x05, 0x01, 0x00, 0x00, 0x00, 0x2c, 0x00, 0x00, 0x00,
  0x20, 0x00, 0x00, 0x00, 0x04, 0x00, 0x00, 0x00, 0x16, 0xf1, 0xff, 0xff,
  0x02, 0x00, 0x00, 0x00, 0x02, 0x00, 0x00, 0x00, 0x02, 0x00, 0x00, 0x00,
  0x02, 0x00, 0x00, 0x00, 0x00, 0x00, 0x00, 0x01, 0x01, 0x00, 0x00, 0x00,
  0x1c, 0x00, 0x00, 0x00, 0x01, 0x00, 0x00, 0x00, 0x1b, 0x00, 0x00, 0x00,
  0x50, 0x78, 0xb6, 0xdb, 0x14, 0x00, 0x00, 0x00, 0x1d, 0x00, 0x00, 0x00,
  0x20, 0x00, 0x00, 0x00, 0x68, 0x00, 0x00, 0x00, 0x50, 0x00, 0x00, 0x00,
  0x04, 0x00, 0x00, 0x00, 0x01, 0x00, 0x00, 0x00, 0x19, 0x00, 0x00, 0x00,
  0x19, 0x00, 0x00, 0x00, 0x80, 0x00, 0x00, 0x00, 0x33, 0x00, 0x00, 0x00,
  0x53, 0x69, 0x61, 0x6d, 0x65, 0x73, 0x65, 0x4e, 0x65, 0x74, 0x77, 0x6f,
  0x72, 0x6b, 0x2f, 0x73, 0x65, 0x71, 0x75, 0x65, 0x6e, 0x74, 0x69, 0x61,
  0x6c, 0x2f, 0x6d, 0x61, 0x78, 0x5f, 0x70, 0x6f, 0x6f, 0x6c, 0x69, 0x6e,
  0x67, 0x32, 0x64, 0x5f, 0x31, 0x2f, 0x4d, 0x61, 0x78, 0x50, 0x6f, 0x6f,
  0x6c, 0x5f, 0x31, 0x00, 0x04, 0x00, 0x00, 0x00, 0xff, 0xff, 0xff, 0xff,
  0x19, 0x00, 0x00, 0x00, 0x19, 0x00, 0x00, 0x00, 0x80, 0x00, 0x00, 0x00,
  0x60, 0x78, 0xb6, 0xdb, 0xfa, 0xf0, 0xff, 0xff, 0x00, 0x00, 0x00, 0x01,
  0x24, 0x00, 0x00, 0x00, 0x18, 0x00, 0x00, 0x00, 0x04, 0x00, 0x00, 0x00,
  0xec, 0xf0, 0xff, 0xff, 0x01, 0x00, 0x00, 0x00, 0x01, 0x00, 0x00, 0x00,
  0x00, 0x00, 0x00, 0x01, 0x01, 0x00, 0x00, 0x00, 0x1b, 0x00, 0x00, 0x00,
  0x03, 0x00, 0x00, 0x00, 0x1a, 0x00, 0x00, 0x00, 0x0b, 0x00, 0x00, 0x00,
  0x07, 0x00, 0x00, 0x00, 0x08, 0x79, 0xb6, 0xdb, 0x14, 0x00, 0x00, 0x00,
  0x1c, 0x00, 0x00, 0x00, 0x20, 0x00, 0x00, 0x00, 0x70, 0x01, 0x00, 0x00,
  0x58, 0x01, 0x00, 0x00, 0x04, 0x00, 0x00, 0x00, 0x01, 0x00, 0x00, 0x00,
  0x32, 0x00, 0x00, 0x00, 0x32, 0x00, 0x00, 0x00, 0x80, 0x00, 0x00, 0x00,
  0x39, 0x01, 0x00, 0x00, 0x53, 0x69, 0x61, 0x6d, 0x65, 0x73, 0x65, 0x4e,
  0x65, 0x74, 0x77, 0x6f, 0x72, 0x6b, 0x2f, 0x73, 0x65, 0x71, 0x75, 0x65,
  0x6e, 0x74, 0x69, 0x61, 0x6c, 0x2f, 0x61, 0x63, 0x74, 0x69, 0x76, 0x61,
  0x74, 0x69, 0x6f, 0x6e, 0x5f, 0x31, 0x2f, 0x52, 0x65, 0x6c, 0x75, 0x5f,
  0x31, 0x3b, 0x53, 0x69, 0x61, 0x6d, 0x65, 0x73, 0x65, 0x4e, 0x65, 0x74,
  0x77, 0x6f, 0x72, 0x6b, 0x2f, 0x73, 0x65, 0x71, 0x75, 0x65, 0x6e, 0x74,
  0x69, 0x61, 0x6c, 0x2f, 0x62, 0x61, 0x74, 0x63, 0x68, 0x5f, 0x6e, 0x6f,
  0x72, 0x6d, 0x61, 0x6c, 0x69, 0x7a, 0x61, 0x74, 0x69, 0x6f, 0x6e, 0x5f,
  0x31, 0x2f, 0x46, 0x75, 0x73, 0x65, 0x64, 0x42, 0x61, 0x74, 0x63, 0x68,
  0x4e, 0x6f, 0x72, 0x6d, 0x56, 0x33, 0x5f, 0x31, 0x3b, 0x53, 0x69, 0x61,
  0x6d, 0x65, 0x73, 0x65, 0x4e, 0x65, 0x74, 0x77, 0x6f, 0x72, 0x6b, 0x2f,
  0x73, 0x65, 0x71, 0x75, 0x65, 0x6e, 0x74, 0x69, 0x61, 0x6c, 0x2f, 0x63,
  0x6f, 0x6e, 0x76, 0x32, 0x64, 0x5f, 0x31, 0x2f, 0x42, 0x69, 0x61, 0x73,
  0x41, 0x64, 0x64, 0x2f, 0x52, 0x65, 0x61, 0x64, 0x56, 0x61, 0x72, 0x69,
  0x61, 0x62, 0x6c, 0x65, 0x4f, 0x70, 0x2f, 0x72, 0x65, 0x73, 0x6f, 0x75,
  0x72, 0x63, 0x65, 0x3b, 0x53, 0x69, 0x61, 0x6d, 0x65, 0x73, 0x65, 0x4e,
  0x65, 0x74, 0x77, 0x6f, 0x72, 0x6b, 0x2f, 0x73, 0x65, 0x71, 0x75, 0x65,
  0x6e, 0x74, 0x69, 0x61, 0x6c, 0x2f, 0x63, 0x6f, 0x6e, 0x76, 0x32, 0x64,
  0x5f, 0x31, 0x2f, 0x42, 0x69, 0x61, 0x73, 0x41, 0x64, 0x64, 0x5f, 0x31,
  0x3b, 0x53, 0x69, 0x61, 0x6d, 0x65, 0x73, 0x65, 0x4e, 0x65, 0x74, 0x77,
  0x6f, 0x72, 0x6b, 0x2f, 0x73, 0x65, 0x71, 0x75, 0x65, 0x6e, 0x74, 0x69,
  0x61, 0x6c, 0x2f, 0x63, 0x6f, 0x6e, 0x76, 0x32, 0x64, 0x5f, 0x32, 0x2f,
  0x43, 0x6f, 0x6e, 0x76, 0x32, 0x44, 0x5f, 0x31, 0x3b, 0x53, 0x69, 0x61,
  0x6d, 0x65, 0x73, 0x65, 0x4e, 0x65, 0x74, 0x77, 0x6f, 0x72, 0x6b, 0x2f,
  0x73, 0x65, 0x71, 0x75, 0x65, 0x6e, 0x74, 0x69, 0x61, 0x6c, 0x2f, 0x63,
  0x6f, 0x6e, 0x76, 0x32, 0x64, 0x5f, 0x31, 0x2f, 0x43, 0x6f, 0x6e, 0x76,
  0x32, 0x44, 0x5f, 0x31, 0x31, 0x00, 0x00, 0x00, 0x04, 0x00, 0x00, 0x00,
  0xff, 0xff, 0xff, 0xff, 0x32, 0x00, 0x00, 0x00, 0x32, 0x00, 0x00, 0x00,
  0x80, 0x00, 0x00, 0x00, 0x20, 0x7a, 0xb6, 0xdb, 0xc2, 0xf6, 0xff, 0xff,
  0x00, 0x00, 0x00, 0x05, 0x01, 0x00, 0x00, 0x00, 0x2c, 0x00, 0x00, 0x00,
  0x20, 0x00, 0x00, 0x00, 0x04, 0x00, 0x00, 0x00, 0x92, 0xf3, 0xff, 0xff,
  0x02, 0x00, 0x00, 0x00, 0x02, 0x00, 0x00, 0x00, 0x02, 0x00, 0x00, 0x00,
  0x02, 0x00, 0x00, 0x00, 0x00, 0x00, 0x00, 0x01, 0x01, 0x00, 0x00, 0x00,
  0x1a, 0x00, 0x00, 0x00, 0x01, 0x00, 0x00, 0x00, 0x19, 0x00, 0x00, 0x00,
  0xcc, 0x7a, 0xb6, 0xdb, 0x14, 0x00, 0x00, 0x00, 0x1b, 0x00, 0x00, 0x00,
  0x20, 0x00, 0x00, 0x00, 0x68, 0x00, 0x00, 0x00, 0x50, 0x00, 0x00, 0x00,
  0x04, 0x00, 0x00, 0x00, 0x01, 0x00, 0x00, 0x00, 0x32, 0x00, 0x00, 0x00,
  0x32, 0x00, 0x00, 0x00, 0x40, 0x00, 0x00, 0x00, 0x31, 0x00, 0x00, 0x00,
  0x53, 0x69, 0x61, 0x6d, 0x65, 0x73, 0x65, 0x4e, 0x65, 0x74, 0x77, 0x6f,
  0x72, 0x6b, 0x2f, 0x73, 0x65, 0x71, 0x75, 0x65, 0x6e, 0x74, 0x69, 0x61,
  0x6c, 0x2f, 0x6d, 0x61, 0x78, 0x5f, 0x70, 0x6f, 0x6f, 0x6c, 0x69, 0x6e,
  0x67, 0x32, 0x64, 0x2f, 0x4d, 0x61, 0x78, 0x50, 0x6f, 0x6f, 0x6c, 0x5f,
  0x31, 0x00, 0x00, 0x00, 0x04, 0x00, 0x00, 0x00, 0xff, 0xff, 0xff, 0xff,
  0x32, 0x00, 0x00, 0x00, 0x32, 0x00, 0x00, 0x00, 0x40, 0x00, 0x00, 0x00,
  0xdc, 0x7a, 0xb6, 0xdb, 0x76, 0xf3, 0xff, 0xff, 0x00, 0x00, 0x00, 0x01,
  0x24, 0x00, 0x00, 0x00, 0x18, 0x00, 0x00, 0x00, 0x04, 0x00, 0x00, 0x00,
  0x68, 0xf3, 0xff, 0xff, 0x01, 0x00, 0x00, 0x00, 0x01, 0x00, 0x00, 0x00,
  0x00, 0x00, 0x00, 0x01, 0x01, 0x00, 0x00, 0x00, 0x19, 0x00, 0x00, 0x00,
  0x03, 0x00, 0x00, 0x00, 0x01, 0x00, 0x00, 0x00, 0x0a, 0x00, 0x00, 0x00,
  0x06, 0x00, 0x00, 0x00, 0x84, 0x7b, 0xb6, 0xdb, 0x14, 0x00, 0x00, 0x00,
  0x1a, 0x00, 0x00, 0x00, 0x20, 0x00, 0x00, 0x00, 0x38, 0x01, 0x00, 0x00,
  0x20, 0x01, 0x00, 0x00, 0x04, 0x00, 0x00, 0x00, 0x01, 0x00, 0x00, 0x00,
  0x64, 0x00, 0x00, 0x00, 0x64, 0x00, 0x00, 0x00, 0x40, 0x00, 0x00, 0x00,
  0x03, 0x01, 0x00, 0x00, 0x53, 0x69, 0x61, 0x6d, 0x65, 0x73, 0x65, 0x4e,
  0x65, 0x74, 0x77, 0x6f, 0x72, 0x6b, 0x2f, 0x73, 0x65, 0x71, 0x75, 0x65,
  0x6e, 0x74, 0x69, 0x61, 0x6c, 0x2f, 0x61, 0x63, 0x74, 0x69, 0x76, 0x61,
  0x74, 0x69, 0x6f, 0x6e, 0x2f, 0x52, 0x65, 0x6c, 0x75, 0x5f, 0x31, 0x3b,
  0x53, 0x69, 0x61, 0x6d, 0x65, 0x73, 0x65, 0x4e, 0x65, 0x74, 0x77, 0x6f,
  0x72, 0x6b, 0x2f, 0x73, 0x65, 0x71, 0x75, 0x65, 0x6e, 0x74, 0x69, 0x61,
  0x6c, 0x2f, 0x62, 0x61, 0x74, 0x63, 0x68, 0x5f, 0x6e, 0x6f, 0x72, 0x6d,
  0x61, 0x6c, 0x69, 0x7a, 0x61, 0x74, 0x69, 0x6f, 0x6e, 0x2f, 0x46, 0x75,
  0x73, 0x65, 0x64, 0x42, 0x61, 0x74, 0x63, 0x68, 0x4e, 0x6f, 0x72, 0x6d,
  0x56, 0x33, 0x5f, 0x31, 0x3b, 0x53, 0x69, 0x61, 0x6d, 0x65, 0x73, 0x65,
  0x4e, 0x65, 0x74, 0x77, 0x6f, 0x72, 0x6b, 0x2f, 0x73, 0x65, 0x71, 0x75,
  0x65, 0x6e, 0x74, 0x69, 0x61, 0x6c, 0x2f, 0x63, 0x6f, 0x6e, 0x76, 0x32,
  0x64, 0x2f, 0x42, 0x69, 0x61, 0x73, 0x41, 0x64, 0x64, 0x2f, 0x52, 0x65,
  0x61, 0x64, 0x56, 0x61, 0x72, 0x69, 0x61, 0x62, 0x6c, 0x65, 0x4f, 0x70,
  0x2f, 0x72, 0x65, 0x73, 0x6f, 0x75, 0x72, 0x63, 0x65, 0x3b, 0x53, 0x69,
  0x61, 0x6d, 0x65, 0x73, 0x65, 0x4e, 0x65, 0x74, 0x77, 0x6f, 0x72, 0x6b,
  0x2f, 0x73, 0x65, 0x71, 0x75, 0x65, 0x6e, 0x74, 0x69, 0x61, 0x6c, 0x2f,
  0x63, 0x6f, 0x6e, 0x76, 0x32, 0x64, 0x2f, 0x42, 0x69, 0x61, 0x73, 0x41,
  0x64, 0x64, 0x5f, 0x31, 0x3b, 0x53, 0x69, 0x61, 0x6d, 0x65, 0x73, 0x65,
  0x4e, 0x65, 0x74, 0x77, 0x6f, 0x72, 0x6b, 0x2f, 0x73, 0x65, 0x71, 0x75,
  0x65, 0x6e, 0x74, 0x69, 0x61, 0x6c, 0x2f, 0x63, 0x6f, 0x6e, 0x76, 0x32,
  0x64, 0x2f, 0x43, 0x6f, 0x6e, 0x76, 0x32, 0x44, 0x5f, 0x31, 0x31, 0x00,
  0x04, 0x00, 0x00, 0x00, 0xff, 0xff, 0xff, 0xff, 0x64, 0x00, 0x00, 0x00,
  0x64, 0x00, 0x00, 0x00, 0x40, 0x00, 0x00, 0x00, 0x64, 0x7c, 0xb6, 0xdb,
  0xa2, 0xfe, 0xff, 0xff, 0x04, 0x00, 0x00, 0x00, 0x10, 0x00, 0x00, 0x00,
  0x04, 0x00, 0x00, 0x00, 0x01, 0x00, 0x00, 0x00, 0x18, 0x00, 0x00, 0x00,
  0x01, 0x00, 0x00, 0x00, 0x17, 0x00, 0x00, 0x00, 0xc8, 0xf4, 0xff, 0xff,
  0x0e, 0x00, 0x00, 0x00, 0x00, 0x00, 0x00, 0x0e, 0x01, 0x00, 0x00, 0x00,
  0x00, 0x7d, 0xb6, 0xdb, 0x14, 0x00, 0x00, 0x00, 0x19, 0x00, 0x00, 0x00,
  0x18, 0x00, 0x00, 0x00, 0x4c, 0x00, 0x00, 0x00, 0x3c, 0x00, 0x00, 0x00,
  0x02, 0x00, 0x00, 0x00, 0x01, 0x00, 0x00, 0x00, 0x00, 0x10, 0x00, 0x00,
  0x27, 0x00, 0x00, 0x00, 0x53, 0x69, 0x61, 0x6d, 0x65, 0x73, 0x65, 0x4e,
  0x65, 0x74, 0x77, 0x6f, 0x72, 0x6b, 0x2f, 0x73, 0x65, 0x71, 0x75, 0x65,
  0x6e, 0x74, 0x69, 0x61, 0x6c, 0x2f, 0x64, 0x65, 0x6e, 0x73, 0x65, 0x2f,
  0x53, 0x69, 0x67, 0x6d, 0x6f, 0x69, 0x64, 0x00, 0x02, 0x00, 0x00, 0x00,
  0xff, 0xff, 0xff, 0xff, 0x00, 0x10, 0x00, 0x00, 0xf4, 0x7c, 0xb6, 0xdb,
  0x96, 0xf9, 0xff, 0xff, 0x00, 0x00, 0x00, 0x08, 0x03, 0x00, 0x00, 0x00,
  0x18, 0x00, 0x00, 0x00, 0x0c, 0x00, 0x00, 0x00, 0x04, 0x00, 0x00, 0x00,
  0x10, 0x7d, 0xb6, 0xdb, 0x01, 0x00, 0x00, 0x00, 0x17, 0x00, 0x00, 0x00,
  0x03, 0x00, 0x00, 0x00, 0x16, 0x00, 0x00, 0x00, 0x09, 0x00, 0x00, 0x00,
  0x03, 0x00, 0x00, 0x00, 0x6c, 0xf5, 0xff, 0xff, 0x09, 0x00, 0x00, 0x00,
  0x00, 0x00, 0x00, 0x09, 0x01, 0x00, 0x00, 0x00, 0xa4, 0x7d, 0xb6, 0xdb,
  0x14, 0x00, 0x00, 0x00, 0x18, 0x00, 0x00, 0x00, 0x18, 0x00, 0x00, 0x00,
  0x74, 0x00, 0x00, 0x00, 0x64, 0x00, 0x00, 0x00, 0x02, 0x00, 0x00, 0x00,
  0x01, 0x00, 0x00, 0x00, 0x00, 0x10, 0x00, 0x00, 0x4e, 0x00, 0x00, 0x00,
  0x53, 0x69, 0x61, 0x6d, 0x65, 0x73, 0x65, 0x4e, 0x65, 0x74, 0x77, 0x6f,
  0x72, 0x6b, 0x2f, 0x73, 0x65, 0x71, 0x75, 0x65, 0x6e, 0x74, 0x69, 0x61,
  0x6c, 0x2f, 0x64, 0x65, 0x6e, 0x73, 0x65, 0x2f, 0x4d, 0x61, 0x74, 0x4d,
  0x75, 0x6c, 0x3b, 0x53, 0x69, 0x61, 0x6d, 0x65, 0x73, 0x65, 0x4e, 0x65,
  0x74, 0x77, 0x6f, 0x72, 0x6b, 0x2f, 0x73, 0x65, 0x71, 0x75, 0x65, 0x6e,
  0x74, 0x69, 0x61, 0x6c, 0x2f, 0x64, 0x65, 0x6e, 0x73, 0x65, 0x2f, 0x42,
  0x69, 0x61, 0x73, 0x41, 0x64, 0x64, 0x00, 0x00, 0x02, 0x00, 0x00, 0x00,
  0xff, 0xff, 0xff, 0xff, 0x00, 0x10, 0x00, 0x00, 0x0c, 0x7f, 0xb6, 0xdb,
  0x00, 0x00, 0x0a, 0x00, 0x10, 0x00, 0x04, 0x00, 0x08, 0x00, 0x0c, 0x00,
  0x0a, 0x00, 0x00, 0x00, 0x02, 0x00, 0x00, 0x00, 0x10, 0x00, 0x00, 0x00,
  0x04, 0x00, 0x00, 0x00, 0x01, 0x00, 0x00, 0x00, 0x16, 0x00, 0x00, 0x00,
  0x02, 0x00, 0x00, 0x00, 0x15, 0x00, 0x00, 0x00, 0x04, 0x00, 0x00, 0x00,
  0x34, 0xf6, 0xff, 0xff, 0x16, 0x00, 0x00, 0x00, 0x00, 0x00, 0x00, 0x16,
  0x01, 0x00, 0x00, 0x00, 0x6c, 0x7e, 0xb6, 0xdb, 0x14, 0x00, 0x00, 0x00,
  0x17, 0x00, 0x00, 0x00, 0x18, 0x00, 0x00, 0x00, 0x50, 0x00, 0x00, 0x00,
  0x40, 0x00, 0x00, 0x00, 0x02, 0x00, 0x00, 0x00, 0x01, 0x00, 0x00, 0x00,
  0x00, 0x90, 0x00, 0x00, 0x29, 0x00, 0x00, 0x00, 0x53, 0x69, 0x61, 0x6d,
  0x65, 0x73, 0x65, 0x4e, 0x65, 0x74, 0x77, 0x6f, 0x72, 0x6b, 0x2f, 0x73,
  0x65, 0x71, 0x75, 0x65, 0x6e, 0x74, 0x69, 0x61, 0x6c, 0x2f, 0x66, 0x6c,
  0x61, 0x74, 0x74, 0x65, 0x6e, 0x2f, 0x52, 0x65, 0x73, 0x68, 0x61, 0x70,
  0x65, 0x00, 0x00, 0x00, 0x02, 0x00, 0x00, 0x00, 0xff, 0xff, 0xff, 0xff,
  0x00, 0x90, 0x00, 0x00, 0xb0, 0x7f, 0xb6, 0xdb, 0x00, 0x00, 0x0e, 0x00,
  0x16, 0x00, 0x00, 0x00, 0x08, 0x00, 0x0c, 0x00, 0x07, 0x00, 0x10, 0x00,
  0x0e, 0x00, 0x00, 0x00, 0x00, 0x00, 0x00, 0x01, 0x2c, 0x00, 0x00, 0x00,
  0x20, 0x00, 0x00, 0x00, 0x10, 0x00, 0x00, 0x00, 0x00, 0x00, 0x0a, 0x00,
  0x0c, 0x00, 0x00, 0x00, 0x04, 0x00, 0x08, 0x00, 0x0a, 0x00, 0x00, 0x00,
  0x01, 0x00, 0x00, 0x00, 0x01, 0x00, 0x00, 0x00, 0x01, 0x00, 0x00, 0x00,
  0x15, 0x00, 0x00, 0x00, 0x03, 0x00, 0x00, 0x00, 0x14, 0x00, 0x00, 0x00,
  0x0d, 0x00, 0x00, 0x00, 0x0e, 0x00, 0x00, 0x00, 0x24, 0x7f, 0xb6, 0xdb,
  0x14, 0x00, 0x00, 0x00, 0x16, 0x00, 0x00, 0x00, 0x20, 0x00, 0x00, 0x00,
  0xac, 0x01, 0x00, 0x00, 0x94, 0x01, 0x00, 0x00, 0x04, 0x00, 0x00, 0x00,
  0x01, 0x00, 0x00, 0x00, 0x0c, 0x00, 0x00, 0x00, 0x0c, 0x00, 0x00, 0x00,
  0x00, 0x01, 0x00, 0x00, 0x74, 0x01, 0x00, 0x00, 0x53, 0x69, 0x61, 0x6d,
  0x65, 0x73, 0x65, 0x4e, 0x65, 0x74, 0x77, 0x6f, 0x72, 0x6b, 0x2f, 0x73,
  0x65, 0x71, 0x75, 0x65, 0x6e, 0x74, 0x69, 0x61, 0x6c, 0x2f, 0x62, 0x61,
  0x74, 0x63, 0x68, 0x5f, 0x6e, 0x6f, 0x72, 0x6d, 0x61, 0x6c, 0x69, 0x7a,
  0x61, 0x74, 0x69, 0x6f, 0x6e, 0x5f, 0x33, 0x2f, 0x46, 0x75, 0x73, 0x65,
  0x64, 0x42, 0x61, 0x74, 0x63, 0x68, 0x4e, 0x6f, 0x72, 0x6d, 0x56, 0x33,
  0x3b, 0x53, 0x69, 0x61, 0x6d, 0x65, 0x73, 0x65, 0x4e, 0x65, 0x74, 0x77,
  0x6f, 0x72, 0x6b, 0x2f, 0x73, 0x65, 0x71, 0x75, 0x65, 0x6e, 0x74, 0x69,
  0x61, 0x6c, 0x2f, 0x62, 0x61, 0x74, 0x63, 0x68, 0x5f, 0x6e, 0x6f, 0x72,
  0x6d, 0x61, 0x6c, 0x69, 0x7a, 0x61, 0x74, 0x69, 0x6f, 0x6e, 0x5f, 0x33,
  0x2f, 0x46, 0x75, 0x73, 0x65, 0x64, 0x42, 0x61, 0x74, 0x63, 0x68, 0x4e,
  0x6f, 0x72, 0x6d, 0x56, 0x33, 0x5f, 0x31, 0x3b, 0x53, 0x69, 0x61, 0x6d,
  0x65, 0x73, 0x65, 0x4e, 0x65, 0x74, 0x77, 0x6f, 0x72, 0x6b, 0x2f, 0x73,
  0x65, 0x71, 0x75, 0x65, 0x6e, 0x74, 0x69, 0x61, 0x6c, 0x2f, 0x63, 0x6f,
  0x6e, 0x76, 0x32, 0x64, 0x5f, 0x33, 0x2f, 0x42, 0x69, 0x61, 0x73, 0x41,
  0x64, 0x64, 0x2f, 0x52, 0x65, 0x61, 0x64, 0x56, 0x61, 0x72, 0x69, 0x61,
  0x62, 0x6c, 0x65, 0x4f, 0x70, 0x2f, 0x72, 0x65, 0x73, 0x6f, 0x75, 0x72,
  0x63, 0x65, 0x3b, 0x53, 0x69, 0x61, 0x6d, 0x65, 0x73, 0x65, 0x4e, 0x65,
  0x74, 0x77, 0x6f, 0x72, 0x6b, 0x2f, 0x73, 0x65, 0x71, 0x75, 0x65, 0x6e,
  0x74, 0x69, 0x61, 0x6c, 0x2f, 0x63, 0x6f, 0x6e, 0x76, 0x32, 0x64, 0x5f,
  0x33, 0x2f, 0x42, 0x69, 0x61, 0x73, 0x41, 0x64, 0x64, 0x5f, 0x31, 0x3b,
  0x53, 0x69, 0x61, 0x6d, 0x65, 0x73, 0x65, 0x4e, 0x65, 0x74, 0x77, 0x6f,
  0x72, 0x6b, 0x2f, 0x73, 0x65, 0x71, 0x75, 0x65, 0x6e, 0x74, 0x69, 0x61,
  0x6c, 0x2f, 0x63, 0x6f, 0x6e, 0x76, 0x32, 0x64, 0x5f, 0x33, 0x2f, 0x42,
  0x69, 0x61, 0x73, 0x41, 0x64, 0x64, 0x3b, 0x53, 0x69, 0x61, 0x6d, 0x65,
  0x73, 0x65, 0x4e, 0x65, 0x74, 0x77, 0x6f, 0x72, 0x6b, 0x2f, 0x73, 0x65,
  0x71, 0x75, 0x65, 0x6e, 0x74, 0x69, 0x61, 0x6c, 0x2f, 0x63, 0x6f, 0x6e,
  0x76, 0x32, 0x64, 0x5f, 0x33, 0x2f, 0x43, 0x6f, 0x6e, 0x76, 0x32, 0x44,
  0x5f, 0x31, 0x3b, 0x53, 0x69, 0x61, 0x6d, 0x65, 0x73, 0x65, 0x4e, 0x65,
  0x74, 0x77, 0x6f, 0x72, 0x6b, 0x2f, 0x73, 0x65, 0x71, 0x75, 0x65, 0x6e,
  0x74, 0x69, 0x61, 0x6c, 0x2f, 0x63, 0x6f, 0x6e, 0x76, 0x32, 0x64, 0x5f,
  0x33, 0x2f, 0x43, 0x6f, 0x6e, 0x76, 0x32, 0x44, 0x00, 0x00, 0x00, 0x00,
  0x04, 0x00, 0x00, 0x00, 0xff, 0xff, 0xff, 0xff, 0x0c, 0x00, 0x00, 0x00,
  0x0c, 0x00, 0x00, 0x00, 0x00, 0x01, 0x00, 0x00, 0x78, 0x80, 0xb6, 0xdb,
  0x1a, 0xfd, 0xff, 0xff, 0x00, 0x00, 0x00, 0x05, 0x01, 0x00, 0x00, 0x00,
  0x2c, 0x00, 0x00, 0x00, 0x20, 0x00, 0x00, 0x00, 0x04, 0x00, 0x00, 0x00,
  0xea, 0xf9, 0xff, 0xff, 0x02, 0x00, 0x00, 0x00, 0x02, 0x00, 0x00, 0x00,
  0x02, 0x00, 0x00, 0x00, 0x02, 0x00, 0x00, 0x00, 0x00, 0x00, 0x00, 0x01,
  0x01, 0x00, 0x00, 0x00, 0x14, 0x00, 0x00, 0x00, 0x01, 0x00, 0x00, 0x00,
  0x13, 0x00, 0x00, 0x00, 0x24, 0x81, 0xb6, 0xdb, 0x14, 0x00, 0x00, 0x00,
  0x15, 0x00, 0x00, 0x00, 0x20, 0x00, 0x00, 0x00, 0x68, 0x00, 0x00, 0x00,
  0x50, 0x00, 0x00, 0x00, 0x04, 0x00, 0x00, 0x00, 0x01, 0x00, 0x00, 0x00,
  0x0c, 0x00, 0x00, 0x00, 0x0c, 0x00, 0x00, 0x00, 0x80, 0x00, 0x00, 0x00,
  0x31, 0x00, 0x00, 0x00, 0x53, 0x69, 0x61, 0x6d, 0x65, 0x73, 0x65, 0x4e,
  0x65, 0x74, 0x77, 0x6f, 0x72, 0x6b, 0x2f, 0x73, 0x65, 0x71, 0x75, 0x65,
  0x6e, 0x74, 0x69, 0x61, 0x6c, 0x2f, 0x6d, 0x61, 0x78, 0x5f, 0x70, 0x6f,
  0x6f, 0x6c, 0x69, 0x6e, 0x67, 0x32, 0x64, 0x5f, 0x32, 0x2f, 0x4d, 0x61,
  0x78, 0x50, 0x6f, 0x6f, 0x6c, 0x00, 0x00, 0x00, 0x04, 0x00, 0x00, 0x00,
  0xff, 0xff, 0xff, 0xff, 0x0c, 0x00, 0x00, 0x00, 0x0c, 0x00, 0x00, 0x00,
  0x80, 0x00, 0x00, 0x00, 0x34, 0x81, 0xb6, 0xdb, 0xce, 0xf9, 0xff, 0xff,
  0x00, 0x00, 0x00, 0x01, 0x24, 0x00, 0x00, 0x00, 0x18, 0x00, 0x00, 0x00,
  0x04, 0x00, 0x00, 0x00, 0xc0, 0xf9, 0xff, 0xff, 0x01, 0x00, 0x00, 0x00,
  0x01, 0x00, 0x00, 0x00, 0x00, 0x00, 0x00, 0x01, 0x01, 0x00, 0x00, 0x00,
  0x13, 0x00, 0x00, 0x00, 0x03, 0x00, 0x00, 0x00, 0x12, 0x00, 0x00, 0x00,
  0x0c, 0x00, 0x00, 0x00, 0x08, 0x00, 0x00, 0x00, 0xdc, 0x81, 0xb6, 0xdb,
  0x14, 0x00, 0x00, 0x00, 0x14, 0x00, 0x00, 0x00, 0x20, 0x00, 0x00, 0x00,
  0xd8, 0x01, 0x00, 0x00, 0xc0, 0x01, 0x00, 0x00, 0x04, 0x00, 0x00, 0x00,
  0x01, 0x00, 0x00, 0x00, 0x19, 0x00, 0x00, 0x00, 0x19, 0x00, 0x00, 0x00,
  0x80, 0x00, 0x00, 0x00, 0xa0, 0x01, 0x00, 0x00, 0x53, 0x69, 0x61, 0x6d,
  0x65, 0x73, 0x65, 0x4e, 0x65, 0x74, 0x77, 0x6f, 0x72, 0x6b, 0x2f, 0x73,
  0x65, 0x71, 0x75, 0x65, 0x6e, 0x74, 0x69, 0x61, 0x6c, 0x2f, 0x61, 0x63,
  0x74, 0x69, 0x76, 0x61, 0x74, 0x69, 0x6f, 0x6e, 0x5f, 0x32, 0x2f, 0x52,
  0x65, 0x6c, 0x75, 0x3b, 0x53, 0x69, 0x61, 0x6d, 0x65, 0x73, 0x65, 0x4e,
  0x65, 0x74, 0x77, 0x6f, 0x72, 0x6b, 0x2f, 0x73, 0x65, 0x71, 0x75, 0x65,
  0x6e, 0x74, 0x69, 0x61, 0x6c, 0x2f, 0x62, 0x61, 0x74, 0x63, 0x68, 0x5f,
  0x6e, 0x6f, 0x72, 0x6d, 0x61, 0x6c, 0x69, 0x7a, 0x61, 0x74, 0x69, 0x6f,
  0x6e, 0x5f, 0x32, 0x2f, 0x46, 0x75, 0x73, 0x65, 0x64, 0x42, 0x61, 0x74,
  0x63, 0x68, 0x4e, 0x6f, 0x72, 0x6d, 0x56, 0x33, 0x3b, 0x53, 0x69, 0x61,
  0x6d, 0x65, 0x73, 0x65, 0x4e, 0x65, 0x74, 0x77, 0x6f, 0x72, 0x6b, 0x2f,
  0x73, 0x65, 0x71, 0x75, 0x65, 0x6e, 0x74, 0x69, 0x61, 0x6c, 0x2f, 0x62,
  0x61, 0x74, 0x63, 0x68, 0x5f, 0x6e, 0x6f, 0x72, 0x6d, 0x61, 0x6c, 0x69,
  0x7a, 0x61, 0x74, 0x69, 0x6f, 0x6e, 0x5f, 0x32, 0x2f, 0x46, 0x75, 0x73,
  0x65, 0x64, 0x42, 0x61, 0x74, 0x63, 0x68, 0x4e, 0x6f, 0x72, 0x6d, 0x56,
  0x33, 0x5f, 0x31, 0x3b, 0x53, 0x69, 0x61, 0x6d, 0x65, 0x73, 0x65, 0x4e,
  0x65, 0x74, 0x77, 0x6f, 0x72, 0x6b, 0x2f, 0x73, 0x65, 0x71, 0x75, 0x65,
  0x6e, 0x74, 0x69, 0x61, 0x6c, 0x2f, 0x63, 0x6f, 0x6e, 0x76, 0x32, 0x64,
  0x5f, 0x32, 0x2f, 0x42, 0x69, 0x61, 0x73, 0x41, 0x64, 0x64, 0x2f, 0x52,
  0x65, 0x61, 0x64, 0x56, 0x61, 0x72, 0x69, 0x61, 0x62, 0x6c, 0x65, 0x4f,
  0x70, 0x2f, 0x72, 0x65, 0x73, 0x6f, 0x75, 0x72, 0x63, 0x65, 0x3b, 0x53,
  0x69, 0x61, 0x6d, 0x65, 0x73, 0x65, 0x4e, 0x65, 0x74, 0x77, 0x6f, 0x72,
  0x6b, 0x2f, 0x73, 0x65, 0x71, 0x75, 0x65, 0x6e, 0x74, 0x69, 0x61, 0x6c,
  0x2f, 0x63, 0x6f, 0x6e, 0x76, 0x32, 0x64, 0x5f, 0x32, 0x2f, 0x42, 0x69,
  0x61, 0x73, 0x41, 0x64, 0x64, 0x5f, 0x31, 0x3b, 0x53, 0x69, 0x61, 0x6d,
  0x65, 0x73, 0x65, 0x4e, 0x65, 0x74, 0x77, 0x6f, 0x72, 0x6b, 0x2f, 0x73,
  0x65, 0x71, 0x75, 0x65, 0x6e, 0x74, 0x69, 0x61, 0x6c, 0x2f, 0x63, 0x6f,
  0x6e, 0x76, 0x32, 0x64, 0x5f, 0x32, 0x2f, 0x43, 0x6f, 0x6e, 0x76, 0x32,
  0x44, 0x5f, 0x31, 0x3b, 0x53, 0x69, 0x61, 0x6d, 0x65, 0x73, 0x65, 0x4e,
  0x65, 0x74, 0x77, 0x6f, 0x72, 0x6b, 0x2f, 0x73, 0x65, 0x71, 0x75, 0x65,
  0x6e, 0x74, 0x69, 0x61, 0x6c, 0x2f, 0x63, 0x6f, 0x6e, 0x76, 0x32, 0x64,
  0x5f, 0x32, 0x2f, 0x42, 0x69, 0x61, 0x73, 0x41, 0x64, 0x64, 0x3b, 0x53,
  0x69, 0x61, 0x6d, 0x65, 0x73, 0x65, 0x4e, 0x65, 0x74, 0x77, 0x6f, 0x72,
  0x6b, 0x2f, 0x73, 0x65, 0x71, 0x75, 0x65, 0x6e, 0x74, 0x69, 0x61, 0x6c,
  0x2f, 0x63, 0x6f, 0x6e, 0x76, 0x32, 0x64, 0x5f, 0x32, 0x2f, 0x43, 0x6f,
  0x6e, 0x76, 0x32, 0x44, 0x00, 0x00, 0x00, 0x00, 0x04, 0x00, 0x00, 0x00,
  0xff, 0xff, 0xff, 0xff, 0x19, 0x00, 0x00, 0x00, 0x19, 0x00, 0x00, 0x00,
  0x80, 0x00, 0x00, 0x00, 0xa8, 0x84, 0xb6, 0xdb, 0x00, 0x00, 0x0e, 0x00,
  0x18, 0x00, 0x08, 0x00, 0x0c, 0x00, 0x10, 0x00, 0x07, 0x00, 0x14, 0x00,
  0x0e, 0x00, 0x00, 0x00, 0x00, 0x00, 0x00, 0x05, 0x01, 0x00, 0x00, 0x00,
  0x2c, 0x00, 0x00, 0x00, 0x20, 0x00, 0x00, 0x00, 0x04, 0x00, 0x00, 0x00,
  0xde, 0xfc, 0xff, 0xff, 0x02, 0x00, 0x00, 0x00, 0x02, 0x00, 0x00, 0x00,
  0x02, 0x00, 0x00, 0x00, 0x02, 0x00, 0x00, 0x00, 0x00, 0x00, 0x00, 0x01,
  0x01, 0x00, 0x00, 0x00, 0x12, 0x00, 0x00, 0x00, 0x01, 0x00, 0x00, 0x00,
  0x11, 0x00, 0x00, 0x00, 0x18, 0x84, 0xb6, 0xdb, 0x14, 0x00, 0x00, 0x00,
  0x13, 0x00, 0x00, 0x00, 0x20, 0x00, 0x00, 0x00, 0x68, 0x00, 0x00, 0x00,
  0x50, 0x00, 0x00, 0x00, 0x04, 0x00, 0x00, 0x00, 0x01, 0x00, 0x00, 0x00,
  0x19, 0x00, 0x00, 0x00, 0x19, 0x00, 0x00, 0x00, 0x80, 0x00, 0x00, 0x00,
  0x31, 0x00, 0x00, 0x00, 0x53, 0x69, 0x61, 0x6d, 0x65, 0x73, 0x65, 0x4e,
  0x65, 0x74, 0x77, 0x6f, 0x72, 0x6b, 0x2f, 0x73, 0x65, 0x71, 0x75, 0x65,
  0x6e, 0x74, 0x69, 0x61, 0x6c, 0x2f, 0x6d, 0x61, 0x78, 0x5f, 0x70, 0x6f,
  0x6f, 0x6c, 0x69, 0x6e, 0x67, 0x32, 0x64, 0x5f, 0x31, 0x2f, 0x4d, 0x61,
  0x78, 0x50, 0x6f, 0x6f, 0x6c, 0x00, 0x00, 0x00, 0x04, 0x00, 0x00, 0x00,
  0xff, 0xff, 0xff, 0xff, 0x19, 0x00, 0x00, 0x00, 0x19, 0x00, 0x00, 0x00,
  0x80, 0x00, 0x00, 0x00, 0x28, 0x84, 0xb6, 0xdb, 0xc2, 0xfc, 0xff, 0xff,
  0x00, 0x00, 0x00, 0x01, 0x24, 0x00, 0x00, 0x00, 0x18, 0x00, 0x00, 0x00,
  0x04, 0x00, 0x00, 0x00, 0xb4, 0xfc, 0xff, 0xff, 0x01, 0x00, 0x00, 0x00,
  0x01, 0x00, 0x00, 0x00, 0x00, 0x00, 0x00, 0x01, 0x01, 0x00, 0x00, 0x00,
  0x11, 0x00, 0x00, 0x00, 0x03, 0x00, 0x00, 0x00, 0x10, 0x00, 0x00, 0x00,
  0x0b, 0x00, 0x00, 0x00, 0x07, 0x00, 0x00, 0x00, 0xd0, 0x84, 0xb6, 0xdb,
  0x14, 0x00, 0x00, 0x00, 0x12, 0x00, 0x00, 0x00, 0x20, 0x00, 0x00, 0x00,
  0x04, 0x02, 0x00, 0x00, 0xec, 0x01, 0x00, 0x00, 0x04, 0x00, 0x00, 0x00,
  0x01, 0x00, 0x00, 0x00, 0x32, 0x00, 0x00, 0x00, 0x32, 0x00, 0x00, 0x00,
  0x80, 0x00, 0x00, 0x00, 0xcc, 0x01, 0x00, 0x00, 0x53, 0x69, 0x61, 0x6d,
  0x65, 0x73, 0x65, 0x4e, 0x65, 0x74, 0x77, 0x6f, 0x72, 0x6b, 0x2f, 0x73,
  0x65, 0x71, 0x75, 0x65, 0x6e, 0x74, 0x69, 0x61, 0x6c, 0x2f, 0x61, 0x63,
  0x74, 0x69, 0x76, 0x61, 0x74, 0x69, 0x6f, 0x6e, 0x5f, 0x31, 0x2f, 0x52,
  0x65, 0x6c, 0x75, 0x3b, 0x53, 0x69, 0x61, 0x6d, 0x65, 0x73, 0x65, 0x4e,
  0x65, 0x74, 0x77, 0x6f, 0x72, 0x6b, 0x2f, 0x73, 0x65, 0x71, 0x75, 0x65,
  0x6e, 0x74, 0x69, 0x61, 0x6c, 0x2f, 0x62, 0x61, 0x74, 0x63, 0x68, 0x5f,
  0x6e, 0x6f, 0x72, 0x6d, 0x61, 0x6c, 0x69, 0x7a, 0x61, 0x74, 0x69, 0x6f,
  0x6e, 0x5f, 0x31, 0x2f, 0x46, 0x75, 0x73, 0x65, 0x64, 0x42, 0x61, 0x74,
  0x63, 0x68, 0x4e, 0x6f, 0x72, 0x6d, 0x56, 0x33, 0x3b, 0x53, 0x69, 0x61,
  0x6d, 0x65, 0x73, 0x65, 0x4e, 0x65, 0x74, 0x77, 0x6f, 0x72, 0x6b, 0x2f,
  0x73, 0x65, 0x71, 0x75, 0x65, 0x6e, 0x74, 0x69, 0x61, 0x6c, 0x2f, 0x62,
  0x61, 0x74, 0x63, 0x68, 0x5f, 0x6e, 0x6f, 0x72, 0x6d, 0x61, 0x6c, 0x69,
  0x7a, 0x61, 0x74, 0x69, 0x6f, 0x6e, 0x5f, 0x31, 0x2f, 0x46, 0x75, 0x73,
  0x65, 0x64, 0x42, 0x61, 0x74, 0x63, 0x68, 0x4e, 0x6f, 0x72, 0x6d, 0x56,
  0x33, 0x5f, 0x31, 0x3b, 0x53, 0x69, 0x61, 0x6d, 0x65, 0x73, 0x65, 0x4e,
  0x65, 0x74, 0x77, 0x6f, 0x72, 0x6b, 0x2f, 0x73, 0x65, 0x71, 0x75, 0x65,
  0x6e, 0x74, 0x69, 0x61, 0x6c, 0x2f, 0x63, 0x6f, 0x6e, 0x76, 0x32, 0x64,
  0x5f, 0x31, 0x2f, 0x42, 0x69, 0x61, 0x73, 0x41, 0x64, 0x64, 0x2f, 0x52,
  0x65, 0x61, 0x64, 0x56, 0x61, 0x72, 0x69, 0x61, 0x62, 0x6c, 0x65, 0x4f,
  0x70, 0x2f, 0x72, 0x65, 0x73, 0x6f, 0x75, 0x72, 0x63, 0x65, 0x3b, 0x53,
  0x69, 0x61, 0x6d, 0x65, 0x73, 0x65, 0x4e, 0x65, 0x74, 0x77, 0x6f, 0x72,
  0x6b, 0x2f, 0x73, 0x65, 0x71, 0x75, 0x65, 0x6e, 0x74, 0x69, 0x61, 0x6c,
  0x2f, 0x63, 0x6f, 0x6e, 0x76, 0x32, 0x64, 0x5f, 0x31, 0x2f, 0x42, 0x69,
  0x61, 0x73, 0x41, 0x64, 0x64, 0x5f, 0x31, 0x3b, 0x53, 0x69, 0x61, 0x6d,
  0x65, 0x73, 0x65, 0x4e, 0x65, 0x74, 0x77, 0x6f, 0x72, 0x6b, 0x2f, 0x73,
  0x65, 0x71, 0x75, 0x65, 0x6e, 0x74, 0x69, 0x61, 0x6c, 0x2f, 0x63, 0x6f,
  0x6e, 0x76, 0x32, 0x64, 0x5f, 0x32, 0x2f, 0x43, 0x6f, 0x6e, 0x76, 0x32,
  0x44, 0x5f, 0x31, 0x3b, 0x53, 0x69, 0x61, 0x6d, 0x65, 0x73, 0x65, 0x4e,
  0x65, 0x74, 0x77, 0x6f, 0x72, 0x6b, 0x2f, 0x73, 0x65, 0x71, 0x75, 0x65,
  0x6e, 0x74, 0x69, 0x61, 0x6c, 0x2f, 0x63, 0x6f, 0x6e, 0x76, 0x32, 0x64,
  0x5f, 0x31, 0x2f, 0x43, 0x6f, 0x6e, 0x76, 0x32, 0x44, 0x5f, 0x31, 0x3b,
  0x53, 0x69, 0x61, 0x6d, 0x65, 0x73, 0x65, 0x4e, 0x65, 0x74, 0x77, 0x6f,
  0x72, 0x6b, 0x2f, 0x73, 0x65, 0x71, 0x75, 0x65, 0x6e, 0x74, 0x69, 0x61,
  0x6c, 0x2f, 0x63, 0x6f, 0x6e, 0x76, 0x32, 0x64, 0x5f, 0x31, 0x2f, 0x42,
  0x69, 0x61, 0x73, 0x41, 0x64, 0x64, 0x3b, 0x53, 0x69, 0x61, 0x6d, 0x65,
  0x73, 0x65, 0x4e, 0x65, 0x74, 0x77, 0x6f, 0x72, 0x6b, 0x2f, 0x73, 0x65,
  0x71, 0x75, 0x65, 0x6e, 0x74, 0x69, 0x61, 0x6c, 0x2f, 0x63, 0x6f, 0x6e,
  0x76, 0x32, 0x64, 0x5f, 0x31, 0x2f, 0x43, 0x6f, 0x6e, 0x76, 0x32, 0x44,
  0x00, 0x00, 0x00, 0x00, 0x04, 0x00, 0x00, 0x00, 0xff, 0xff, 0xff, 0xff,
  0x32, 0x00, 0x00, 0x00, 0x32, 0x00, 0x00, 0x00, 0x80, 0x00, 0x00, 0x00,
  0xc8, 0x87, 0xb6, 0xdb, 0x00, 0x00, 0x0e, 0x00, 0x1a, 0x00, 0x08, 0x00,
  0x0c, 0x00, 0x10, 0x00, 0x07, 0x00, 0x14, 0x00, 0x0e, 0x00, 0x00, 0x00,
  0x00, 0x00, 0x00, 0x05, 0x01, 0x00, 0x00, 0x00, 0x3c, 0x00, 0x00, 0x00,
  0x30, 0x00, 0x00, 0x00, 0x14, 0x00, 0x00, 0x00, 0x00, 0x00, 0x0e, 0x00,
  0x18, 0x00, 0x17, 0x00, 0x10, 0x00, 0x0c, 0x00, 0x08, 0x00, 0x04, 0x00,
  0x0e, 0x00, 0x00, 0x00, 0x02, 0x00, 0x00, 0x00, 0x02, 0x00, 0x00, 0x00,
  0x02, 0x00, 0x00, 0x00, 0x02, 0x00, 0x00, 0x00, 0x00, 0x00, 0x00, 0x01,
  0x01, 0x00, 0x00, 0x00, 0x10, 0x00, 0x00, 0x00, 0x01, 0x00, 0x00, 0x00,
  0x0f, 0x00, 0x00, 0x00, 0x20, 0xff, 0xff, 0xff, 0x11, 0x00, 0x00, 0x00,
  0x00, 0x00, 0x00, 0x11, 0x01, 0x00, 0x00, 0x00, 0x58, 0x87, 0xb6, 0xdb,
  0x14, 0x00, 0x00, 0x00, 0x11, 0x00, 0x00, 0x00, 0x20, 0x00, 0x00, 0x00,
  0x64, 0x00, 0x00, 0x00, 0x4c, 0x00, 0x00, 0x00, 0x04, 0x00, 0x00, 0x00,
  0x01, 0x00, 0x00, 0x00, 0x32, 0x00, 0x00, 0x00, 0x32, 0x00, 0x00, 0x00,
  0x40, 0x00, 0x00, 0x00, 0x2f, 0x00, 0x00, 0x00, 0x53, 0x69, 0x61, 0x6d,
  0x65, 0x73, 0x65, 0x4e, 0x65, 0x74, 0x77, 0x6f, 0x72, 0x6b, 0x2f, 0x73,
  0x65, 0x71, 0x75, 0x65, 0x6e, 0x74, 0x69, 0x61, 0x6c, 0x2f, 0x6d, 0x61,
  0x78, 0x5f, 0x70, 0x6f, 0x6f, 0x6c, 0x69, 0x6e, 0x67, 0x32, 0x64, 0x2f,
  0x4d, 0x61, 0x78, 0x50, 0x6f, 0x6f, 0x6c, 0x00, 0x04, 0x00, 0x00, 0x00,
  0xff, 0xff, 0xff, 0xff, 0x32, 0x00, 0x00, 0x00, 0x32, 0x00, 0x00, 0x00,
  0x40, 0x00, 0x00, 0x00, 0xb0, 0x88, 0xb6, 0xdb, 0x00, 0x00, 0x0e, 0x00,
  0x14, 0x00, 0x00, 0x00, 0x08, 0x00, 0x0c, 0x00, 0x07, 0x00, 0x10, 0x00,
  0x0e, 0x00, 0x00, 0x00, 0x00, 0x00, 0x00, 0x01, 0x30, 0x00, 0x00, 0x00,
  0x24, 0x00, 0x00, 0x00, 0x10, 0x00, 0x00, 0x00, 0x0c, 0x00, 0x10, 0x00,
  0x00, 0x00, 0x04, 0x00, 0x08, 0x00, 0x0f, 0x00, 0x0c, 0x00, 0x00, 0x00,
  0x01, 0x00, 0x00, 0x00, 0x01, 0x00, 0x00, 0x00, 0x00, 0x00, 0x00, 0x01,
  0x01, 0x00, 0x00, 0x00, 0x0f, 0x00, 0x00, 0x00, 0x03, 0x00, 0x00, 0x00,
  0x00, 0x00, 0x00, 0x00, 0x0a, 0x00, 0x00, 0x00, 0x06, 0x00, 0x00, 0x00,
  0x0c, 0x00, 0x10, 0x00, 0x0b, 0x00, 0x00, 0x00, 0x0c, 0x00, 0x04, 0x00,
  0x0c, 0x00, 0x00, 0x00, 0x03, 0x00, 0x00, 0x00, 0x00, 0x00, 0x00, 0x03,
  0x01, 0x00, 0x00, 0x00, 0x44, 0x88, 0xb6, 0xdb, 0x14, 0x00, 0x00, 0x00,
  0x10, 0x00, 0x00, 0x00, 0x20, 0x00, 0x00, 0x00, 0xc8, 0x01, 0x00, 0x00,
  0xb0, 0x01, 0x00, 0x00, 0x04, 0x00, 0x00, 0x00, 0x01, 0x00, 0x00, 0x00,
  0x64, 0x00, 0x00, 0x00, 0x64, 0x00, 0x00, 0x00, 0x40, 0x00, 0x00, 0x00,
  0x90, 0x01, 0x00, 0x00, 0x53, 0x69, 0x61, 0x6d, 0x65, 0x73, 0x65, 0x4e,
  0x65, 0x74, 0x77, 0x6f, 0x72, 0x6b, 0x2f, 0x73, 0x65, 0x71, 0x75, 0x65,
  0x6e, 0x74, 0x69, 0x61, 0x6c, 0x2f, 0x61, 0x63, 0x74, 0x69, 0x76, 0x61,
  0x74, 0x69, 0x6f, 0x6e, 0x2f, 0x52, 0x65, 0x6c, 0x75, 0x3b, 0x53, 0x69,
  0x61, 0x6d, 0x65, 0x73, 0x65, 0x4e, 0x65, 0x74, 0x77, 0x6f, 0x72, 0x6b,
  0x2f, 0x73, 0x65, 0x71, 0x75, 0x65, 0x6e, 0x74, 0x69, 0x61, 0x6c, 0x2f,
  0x62, 0x61, 0x74, 0x63, 0x68, 0x5f, 0x6e, 0x6f, 0x72, 0x6d, 0x61, 0x6c,
  0x69, 0x7a, 0x61, 0x74, 0x69, 0x6f, 0x6e, 0x2f, 0x46, 0x75, 0x73, 0x65,
  0x64, 0x42, 0x61, 0x74, 0x63, 0x68, 0x4e, 0x6f, 0x72, 0x6d, 0x56, 0x33,
  0x3b, 0x53, 0x69, 0x61, 0x6d, 0x65, 0x73, 0x65, 0x4e, 0x65, 0x74, 0x77,
  0x6f, 0x72, 0x6b, 0x2f, 0x73, 0x65, 0x71, 0x75, 0x65, 0x6e, 0x74, 0x69,
  0x61, 0x6c, 0x2f, 0x62, 0x61, 0x74, 0x63, 0x68, 0x5f, 0x6e, 0x6f, 0x72,
  0x6d, 0x61, 0x6c, 0x69, 0x7a, 0x61, 0x74, 0x69, 0x6f, 0x6e, 0x2f, 0x46,
  0x75, 0x73, 0x65, 0x64, 0x42, 0x61, 0x74, 0x63, 0x68, 0x4e, 0x6f, 0x72,
  0x6d, 0x56, 0x33, 0x5f, 0x31, 0x3b, 0x53, 0x69, 0x61, 0x6d, 0x65, 0x73,
  0x65, 0x4e, 0x65, 0x74, 0x77, 0x6f, 0x72, 0x6b, 0x2f, 0x73, 0x65, 0x71,
  0x75, 0x65, 0x6e, 0x74, 0x69, 0x61, 0x6c, 0x2f, 0x63, 0x6f, 0x6e, 0x76,
  0x32, 0x64, 0x2f, 0x42, 0x69, 0x61, 0x73, 0x41, 0x64, 0x64, 0x2f, 0x52,
  0x65, 0x61, 0x64, 0x56, 0x61, 0x72, 0x69, 0x61, 0x62, 0x6c, 0x65, 0x4f,
  0x70, 0x2f, 0x72, 0x65, 0x73, 0x6f, 0x75, 0x72, 0x63, 0x65, 0x3b, 0x53,
  0x69, 0x61, 0x6d, 0x65, 0x73, 0x65, 0x4e, 0x65, 0x74, 0x77, 0x6f, 0x72,
  0x6b, 0x2f, 0x73, 0x65, 0x71, 0x75, 0x65, 0x6e, 0x74, 0x69, 0x61, 0x6c,
  0x2f, 0x63, 0x6f, 0x6e, 0x76, 0x32, 0x64, 0x2f, 0x42, 0x69, 0x61, 0x73,
  0x41, 0x64, 0x64, 0x5f, 0x31, 0x3b, 0x53, 0x69, 0x61, 0x6d, 0x65, 0x73,
  0x65, 0x4e, 0x65, 0x74, 0x77, 0x6f, 0x72, 0x6b, 0x2f, 0x73, 0x65, 0x71,
  0x75, 0x65, 0x6e, 0x74, 0x69, 0x61, 0x6c, 0x2f, 0x63, 0x6f, 0x6e, 0x76,
  0x32, 0x64, 0x2f, 0x43, 0x6f, 0x6e, 0x76, 0x32, 0x44, 0x5f, 0x31, 0x3b,
  0x53, 0x69, 0x61, 0x6d, 0x65, 0x73, 0x65, 0x4e, 0x65, 0x74, 0x77, 0x6f,
  0x72, 0x6b, 0x2f, 0x73, 0x65, 0x71, 0x75, 0x65, 0x6e, 0x74, 0x69, 0x61,
  0x6c, 0x2f, 0x63, 0x6f, 0x6e, 0x76, 0x32, 0x64, 0x2f, 0x42, 0x69, 0x61,
  0x73, 0x41, 0x64, 0x64, 0x3b, 0x53, 0x69, 0x61, 0x6d, 0x65, 0x73, 0x65,
  0x4e, 0x65, 0x74, 0x77, 0x6f, 0x72, 0x6b, 0x2f, 0x73, 0x65, 0x71, 0x75,
  0x65, 0x6e, 0x74, 0x69, 0x61, 0x6c, 0x2f, 0x63, 0x6f, 0x6e, 0x76, 0x32,
  0x64, 0x2f, 0x43, 0x6f, 0x6e, 0x76, 0x32, 0x44, 0x00, 0x00, 0x00, 0x00,
  0x04, 0x00, 0x00, 0x00, 0xff, 0xff, 0xff, 0xff, 0x64, 0x00, 0x00, 0x00,
  0x64, 0x00, 0x00, 0x00, 0x40, 0x00, 0x00, 0x00, 0xb4, 0x89, 0xb6, 0xdb,
  0xfa, 0x8a, 0xb6, 0xdb, 0x04, 0x00, 0x00, 0x00, 0x00, 0x04, 0x00, 0x00,
  0x76, 0x62, 0x05, 0xbe, 0x53, 0xe0, 0x26, 0xbf, 0x89, 0x53, 0xaa, 0xbe,
  0xb0, 0x08, 0x64, 0x3c, 0x47, 0x7a, 0xb1, 0xbe, 0x5e, 0x9c, 0x43, 0xbf,
  0x54, 0xe6, 0x78, 0xbf, 0x85, 0xdf, 0x89, 0xbf, 0xb1, 0xf8, 0x2c, 0xbf,
  0xa6, 0x4f, 0x19, 0xbf, 0x8f, 0x06, 0x8f, 0xbe, 0xb9, 0x76, 0x3d, 0xbf,
  0x36, 0x77, 0x03, 0x3f, 0x03, 0x62, 0x0c, 0xbe, 0x75, 0x0b, 0xbc, 0xbe,
  0x68, 0xf0, 0xb8, 0x3e, 0x7d, 0x48, 0xb6, 0xbf, 0xa5, 0x61, 0x39, 0xbf,
  0xfe, 0xd2, 0xbd, 0x3e, 0xe9, 0xb3, 0xd2, 0x3d, 0x85, 0xe3, 0x13, 0x3f,
  0x81, 0x1f, 0xa5, 0xbf, 0x21, 0x27, 0x97, 0xbe, 0x4e, 0xda, 0xdb, 0xbd,
  0x55, 0xa8, 0xd2, 0x3e, 0xd2, 0xe8, 0x24, 0xbf, 0x71, 0x0e, 0x50, 0xbe,
  0x01, 0x8b, 0xb6, 0xbe, 0x3e, 0x47, 0xa5, 0xbf, 0x7d, 0xe0, 0x95, 0xbf,
  0x68, 0xf7, 0xd3, 0x3e, 0x46, 0x20, 0xd3, 0xbe, 0x6d, 0xe4, 0x0f, 0xbf,
  0xeb, 0x96, 0x19, 0xbf, 0xf8, 0x38, 0x91, 0xbf, 0x99, 0x61, 0xae, 0x3e,
  0x23, 0x2c, 0xa8, 0xbe, 0xb2, 0x61, 0xa8, 0x3e, 0x65, 0x6a, 0xc0, 0xbe,
  0xe2, 0xb6, 0x65, 0x3e, 0x3f, 0xeb, 0xac, 0xbf, 0x36, 0x0a, 0x80, 0xbe,
  0x03, 0xf8, 0xe9, 0x3e, 0x9d, 0xcc, 0xcf, 0x3e, 0xa7, 0x5a, 0xc1, 0x3d,
  0x10, 0x9b, 0x82, 0xbf, 0xdd, 0x02, 0xa6, 0xbf, 0x83, 0xa7, 0xa5, 0xbf,
  0x7e, 0x82, 0xa1, 0x3f, 0x48, 0xf5, 0x0d, 0xbf, 0xf9, 0x7d, 0x79, 0xbd,
  0xb7, 0xf7, 0x4a, 0xbe, 0x7b, 0x17, 0x9c, 0xbe, 0x2a, 0x9d, 0x83, 0xbe,
  0x15, 0x1d, 0xc7, 0xbe, 0x93, 0x9d, 0x2b, 0xbf, 0xf4, 0xcb, 0xd2, 0xbe,
  0x39, 0xbe, 0xd4, 0xbe, 0x2d, 0x40, 0x29, 0xbe, 0xb4, 0x0f, 0x83, 0x3f,
  0x5c, 0x1f, 0xb7, 0x3e, 0xae, 0xe7, 0xa8, 0x3e, 0x4a, 0x00, 0x35, 0xbf,
  0xce, 0x37, 0x0c, 0x3f, 0x60, 0xd2, 0x47, 0x3f, 0x5f, 0xc0, 0x37, 0x3d,
  0xc8, 0x8b, 0x25, 0xbe, 0xda, 0x1d, 0x8b, 0xbe, 0xcd, 0xcf, 0xbf, 0x3d,
  0x02, 0x68, 0xaa, 0x3e, 0xfc, 0xf2, 0x44, 0x3f, 0x86, 0x38, 0xac, 0x3e,
  0x0f, 0xc1, 0x1d, 0xbf, 0x90, 0x21, 0x23, 0xbe, 0x81, 0xb4, 0x7f, 0xbf,
  0x0c, 0x58, 0x42, 0xbf, 0x69, 0x79, 0x16, 0x3e, 0x57, 0x9e, 0x8f, 0xbf,
  0x4a, 0x04, 0x5c, 0x3e, 0xe8, 0x38, 0xb5, 0xbe, 0x4a, 0x3f, 0xc8, 0xbe,
  0x3f, 0xdd, 0x31, 0xbf, 0xd3, 0xc5, 0xd8, 0xbc, 0xa2, 0xc2, 0x18, 0x3f,
  0xb9, 0x93, 0x3c, 0xbf, 0x1b, 0x36, 0x26, 0xbf, 0xc8, 0xb7, 0x0a, 0x3f,
  0xe9, 0xea, 0xb5, 0xbe, 0x11, 0x7f, 0xc3, 0xbf, 0xb0, 0xf4, 0x18, 0xbf,
  0x43, 0xff, 0xc9, 0xbe, 0xcc, 0xef, 0x2f, 0x3f, 0x72, 0x9f, 0x18, 0x3e,
  0x9d, 0x5d, 0x1c, 0x3f, 0xcf, 0x1e, 0x8a, 0x3f, 0xb7, 0xd8, 0x76, 0x3f,
  0x77, 0x74, 0x0b, 0xbf, 0x3d, 0xf0, 0x16, 0x3e, 0xa4, 0x3b, 0x7b, 0xbf,
  0x33, 0x25, 0x92, 0xbe, 0xc6, 0x28, 0xbe, 0x3e, 0xf9, 0x71, 0x7a, 0xbe,
  0x4b, 0x01, 0xad, 0xbe, 0x31, 0x97, 0xf6, 0xbe, 0x4e, 0x07, 0x18, 0xbf,
  0xe8, 0xfd, 0xcd, 0x3e, 0xa5, 0x42, 0x96, 0x3b, 0xcb, 0x43, 0x02, 0xbe,
  0x26, 0x87, 0xc9, 0x3e, 0x78, 0x4b, 0x9c, 0xbe, 0xdd, 0xf3, 0x79, 0xbf,
  0xf7, 0xe6, 0x19, 0xbe, 0x03, 0xb6, 0x43, 0xbf, 0xad, 0x89, 0xc6, 0x3f,
  0x00, 0x4a, 0x99, 0xbf, 0x7d, 0xb3, 0x70, 0x3c, 0xab, 0xd1, 0x85, 0x3e,
  0x03, 0xf0, 0x0d, 0x3e, 0x21, 0xe8, 0x8c, 0x3f, 0xb9, 0x95, 0x2c, 0x3f,
  0xfb, 0x9c, 0x84, 0x3f, 0x1c, 0x86, 0x40, 0x3f, 0xeb, 0x6e, 0x39, 0x3f,
  0xd5, 0x27, 0x70, 0xbf, 0x75, 0x1f, 0xdf, 0xbd, 0x22, 0x17, 0x87, 0x3f,
  0xbc, 0x6f, 0x42, 0xbf, 0x8a, 0x4d, 0x40, 0xbf, 0x14, 0x79, 0x94, 0xbe,
  0xa2, 0x9e, 0x6d, 0x3f, 0x17, 0xec, 0x99, 0x3f, 0x15, 0xd8, 0x11, 0x3f,
  0x43, 0x86, 0x89, 0xbe, 0xe4, 0xdb, 0xb6, 0x3d, 0xfd, 0x5b, 0xb7, 0x3d,
  0xfb, 0x54, 0xe5, 0xbd, 0x2f, 0x8d, 0xbf, 0x3f, 0xd4, 0x46, 0x60, 0xbf,
  0x71, 0x5c, 0x75, 0xbf, 0x95, 0x4c, 0x8a, 0x3f, 0x51, 0xbc, 0x45, 0xbf,
  0xe7, 0x42, 0x86, 0xbe, 0x9e, 0xd6, 0x5e, 0xbe, 0xea, 0x5a, 0x6a, 0x3e,
  0x7c, 0xdd, 0x19, 0xbe, 0xdd, 0x59, 0x21, 0xbd, 0x4e, 0x09, 0x14, 0xbf,
  0xa9, 0x5c, 0x47, 0xbe, 0x1b, 0x5a, 0xa4, 0xbe, 0x83, 0xc3, 0x85, 0x3d,
  0x31, 0xa3, 0x71, 0x3e, 0x40, 0x7f, 0x6a, 0xbf, 0x6f, 0xce, 0x7b, 0x3f,
  0xce, 0xdd, 0x25, 0x3f, 0xb4, 0xf2, 0x4b, 0xbf, 0x28, 0x81, 0xb2, 0xbe,
  0xc4, 0x3f, 0x09, 0x3f, 0x40, 0xc8, 0xd8, 0xbe, 0x69, 0x8e, 0x74, 0xbf,
  0x24, 0x74, 0x13, 0x3f, 0xfe, 0x22, 0xf0, 0x3d, 0x64, 0x44, 0x63, 0x3f,
  0xb0, 0x13, 0xc6, 0x3e, 0x3d, 0xdd, 0x3a, 0xbe, 0x6e, 0x19, 0xe8, 0xbe,
  0x5f, 0xdd, 0xec, 0x3e, 0x82, 0x9f, 0x80, 0x3e, 0x84, 0x87, 0xfa, 0xbe,
  0x50, 0xaf, 0x90, 0xbf, 0x8c, 0xb7, 0x4f, 0xbe, 0xb5, 0x4f, 0xee, 0x3c,
  0xa5, 0x06, 0xd5, 0xbd, 0xd4, 0xeb, 0x09, 0x3f, 0xf6, 0x42, 0x13, 0xbf,
  0xa5, 0x1a, 0x03, 0x3f, 0x10, 0xec, 0x70, 0xbd, 0x27, 0x15, 0x6c, 0xbf,
  0xef, 0xee, 0x45, 0xbe, 0x80, 0x50, 0x84, 0x3e, 0x25, 0x40, 0x20, 0xbf,
  0xd2, 0x3d, 0x8f, 0xbe, 0x0b, 0x24, 0x41, 0xbf, 0x74, 0x71, 0x91, 0x3e,
  0xee, 0x3a, 0x69, 0x3f, 0x6c, 0x66, 0xac, 0xbf, 0xd7, 0xd6, 0x61, 0xbf,
  0xd2, 0x2c, 0x99, 0x3e, 0x98, 0x88, 0x83, 0xbe, 0xd4, 0x63, 0x52, 0x3f,
  0x6b, 0x0b, 0x83, 0xbe, 0x4d, 0x0a, 0xbd, 0xbe, 0x12, 0x07, 0xc0, 0x3e,
  0x5c, 0xea, 0xb6, 0xbe, 0x39, 0x76, 0x41, 0xbe, 0x0b, 0x50, 0xa0, 0x3e,
  0x48, 0xfd, 0x92, 0x3f, 0xdf, 0xda, 0x85, 0x3f, 0x07, 0xf6, 0x1d, 0xbe,
  0xff, 0x25, 0x1f, 0xbf, 0x94, 0x6b, 0x88, 0xbd, 0x2a, 0xd7, 0x81, 0x3f,
  0x3d, 0x64, 0x40, 0xbf, 0x2d, 0xbe, 0x62, 0xbf, 0x61, 0x55, 0x23, 0xbd,
  0x41, 0x4c, 0x1d, 0x3e, 0x11, 0x3a, 0x80, 0xbe, 0xb9, 0xa0, 0xa4, 0xbe,
  0xc4, 0x07, 0x80, 0xbf, 0xf1, 0x1f, 0xe0, 0xbe, 0x4a, 0xb1, 0x93, 0xbf,
  0x27, 0x24, 0x1b, 0xbe, 0xdd, 0xd4, 0x47, 0xbf, 0x75, 0x90, 0x67, 0x3e,
  0x53, 0x38, 0x6b, 0x3e, 0x85, 0x5b, 0x4d, 0xbe, 0xce, 0x76, 0x43, 0x3f,
  0x6f, 0xd4, 0x11, 0xbf, 0xfa, 0x08, 0x24, 0x3f, 0x16, 0x1b, 0xf4, 0xbe,
  0x83, 0x42, 0x88, 0x3f, 0x3e, 0xb5, 0xd3, 0xbd, 0x23, 0xd0, 0xeb, 0x3e,
  0x06, 0xca, 0x6f, 0xbf, 0x22, 0xf2, 0x62, 0xbc, 0x47, 0xc1, 0x87, 0xbf,
  0xbb, 0xa1, 0x77, 0x3d, 0xf7, 0x77, 0x96, 0xbe, 0xb6, 0xfb, 0x1b, 0x3f,
  0x7a, 0x94, 0x96, 0x3f, 0xb3, 0x15, 0x89, 0xbe, 0x6c, 0x46, 0x9c, 0xbc,
  0x3a, 0xf9, 0xa5, 0x3c, 0xb2, 0x8b, 0xf3, 0xbb, 0xaa, 0x34, 0x63, 0xbf,
  0x85, 0x8a, 0xb4, 0x3e, 0xea, 0x89, 0x6f, 0xbd, 0x71, 0xc1, 0x26, 0xbf,
  0x5a, 0x0e, 0x9c, 0xbd, 0x2e, 0xb4, 0x4a, 0x3e, 0x38, 0x9e, 0x17, 0xbe,
  0xd6, 0xe0, 0x16, 0xbf, 0x63, 0xa8, 0x9e, 0xbc, 0x0e, 0x9e, 0x4c, 0x3e,
  0x6b, 0x9b, 0x82, 0xbe, 0xad, 0x78, 0xaa, 0x3e, 0xbc, 0x16, 0x36, 0x3f,
  0x19, 0x64, 0x04, 0x3e, 0x88, 0xc6, 0x34, 0x3e, 0x71, 0xb6, 0x45, 0xbf,
  0x04, 0xf4, 0xf7, 0xbd, 0x20, 0x02, 0xe6, 0x3e, 0x9e, 0xf7, 0x71, 0x3e,
  0xcc, 0xb1, 0x84, 0x3f, 0xa4, 0x46, 0xc7, 0x3f, 0x48, 0x37, 0xf5, 0x3e,
  0x18, 0xde, 0x6d, 0x3e, 0xee, 0x8e, 0xb6, 0xdb, 0x10, 0x00, 0x00, 0x00,
  0x0f, 0x00, 0x00, 0x00, 0x10, 0x00, 0x00, 0x00, 0xc4, 0x00, 0x00, 0x00,
  0x01, 0x00, 0x00, 0x00, 0x00, 0x01, 0x00, 0x00, 0xb2, 0x00, 0x00, 0x00,
  0x53, 0x69, 0x61, 0x6d, 0x65, 0x73, 0x65, 0x4e, 0x65, 0x74, 0x77, 0x6f,
  0x72, 0x6b, 0x2f, 0x73, 0x65, 0x71, 0x75, 0x65, 0x6e, 0x74, 0x69, 0x61,
  0x6c, 0x2f, 0x62, 0x61, 0x74, 0x63, 0x68, 0x5f, 0x6e, 0x6f, 0x72, 0x6d,
  0x61, 0x6c, 0x69, 0x7a, 0x61, 0x74, 0x69, 0x6f, 0x6e, 0x5f, 0x33, 0x2f,
  0x46, 0x75, 0x73, 0x65, 0x64, 0x42, 0x61, 0x74, 0x63, 0x68, 0x4e, 0x6f,
  0x72, 0x6d, 0x56, 0x33, 0x5f, 0x31, 0x3b, 0x53, 0x69, 0x61, 0x6d, 0x65,
  0x73, 0x65, 0x4e, 0x65, 0x74, 0x77, 0x6f, 0x72, 0x6b, 0x2f, 0x73, 0x65,
  0x71, 0x75, 0x65, 0x6e, 0x74, 0x69, 0x61, 0x6c, 0x2f, 0x63, 0x6f, 0x6e,
  0x76, 0x32, 0x64, 0x5f, 0x33, 0x2f, 0x42, 0x69, 0x61, 0x73, 0x41, 0x64,
  0x64, 0x2f, 0x52, 0x65, 0x61, 0x64, 0x56, 0x61, 0x72, 0x69, 0x61, 0x62,
  0x6c, 0x65, 0x4f, 0x70, 0x2f, 0x72, 0x65, 0x73, 0x6f, 0x75, 0x72, 0x63,
  0x65, 0x3b, 0x53, 0x69, 0x61, 0x6d, 0x65, 0x73, 0x65, 0x4e, 0x65, 0x74,
  0x77, 0x6f, 0x72, 0x6b, 0x2f, 0x73, 0x65, 0x71, 0x75, 0x65, 0x6e, 0x74,
  0x69, 0x61, 0x6c, 0x2f, 0x63, 0x6f, 0x6e, 0x76, 0x32, 0x64, 0x5f, 0x33,
  0x2f, 0x42, 0x69, 0x61, 0x73, 0x41, 0x64, 0x64, 0x5f, 0x31, 0x00, 0x00,
  0x98, 0x8e, 0xb6, 0xdb, 0xde, 0x8f, 0xb6, 0xdb, 0x04, 0x00, 0x00, 0x00,
  0x00, 0x00, 0x20, 0x00, 0xca, 0xdc, 0x7f, 0xbb, 0xbf, 0x35, 0xd4, 0xbc,
  0xb1, 0x7e, 0x88, 0xbc, 0xdd, 0xdb, 0xe3, 0xbb, 0x25, 0x33, 0xeb, 0x3c,
  0x3d, 0xfa, 0x13, 0xbc, 0x99, 0xd8, 0xea, 0x3b, 0x04, 0x89, 0xdf, 0xbb,
  0xde, 0x55, 0x11, 0x3d, 0x1a, 0xb5, 0x03, 0xbd, 0x98, 0x54, 0x19, 0xbd,
  0xbb, 0x48, 0x07, 0xbc, 0xa5, 0x21, 0x9d, 0x3c, 0xaa, 0xc4, 0xa5, 0x3c,
  0x0e, 0x40, 0x4c, 0xbd, 0xb0, 0x51, 0x3e, 0x3d, 0x1a, 0x3a, 0x34, 0xba,
  0xaa, 0x9c, 0xb3, 0xbb, 0xb2, 0xee, 0x3f, 0x3d, 0x2f, 0x5c, 0x0d, 0xbd,
  0x7c, 0x28, 0x2b, 0xbd, 0x4f, 0xe3, 0x20, 0x3d, 0x82, 0x58, 0xa3, 0xbc,
  0x1d, 0xa0, 0x31, 0x3c, 0xc1, 0xe7, 0x49, 0x3c, 0xc9, 0xea, 0xb9, 0x3b,
  0x7d, 0xa7, 0x02, 0xbc, 0x42, 0x6f, 0xcd, 0xbc, 0xe7, 0xab, 0x0e, 0x3d,
  0xc0, 0x2d, 0x68, 0x3c, 0xb2, 0xb3, 0x70, 0xbc, 0x56, 0xa9, 0x18, 0xbd,
  0x12, 0x31, 0xe5, 0x3c, 0x5a, 0xe1, 0x8e, 0x3c, 0x52, 0xc9, 0x0d, 0xbc,
  0x73, 0xd4, 0xb8, 0x3b, 0xf0, 0xc3, 0x02, 0x3d, 0x91, 0xa2, 0x2b, 0xbd,
  0x71, 0xb3, 0x3e, 0xbd, 0x85, 0x9e, 0xdd, 0x3c, 0x6d, 0xa6, 0xd2, 0xbc,
  0xea, 0x9c, 0xa4, 0x3c, 0xd5, 0x3b, 0x16, 0xbd, 0x9a, 0x40, 0x34, 0x3d,
  0x90, 0xbb, 0x28, 0xbc, 0x8e, 0x89, 0x09, 0xbc, 0x3f, 0x40, 0xa0, 0x3c,
  0xb8, 0x00, 0xf6, 0x3c, 0x38, 0xd9, 0x1e, 0x3d, 0x46, 0x23, 0x53, 0xbc,
  0x59, 0xb0, 0xaf, 0x3c, 0x82, 0x5a, 0x15, 0x3d, 0x8b, 0xa4, 0x25, 0x3d,
  0x02, 0xee, 0x1c, 0x3c, 0x90, 0xd7, 0x18, 0xbd, 0xa0, 0xd9, 0xca, 0xbc,
  0x3f, 0x30, 0x0f, 0xbd, 0x53, 0x30, 0x35, 0x3b, 0x03, 0x46, 0x11, 0xbc,
  0xfa, 0x35, 0x83, 0x3c, 0x06, 0xbe, 0x14, 0xbd, 0x8c, 0x26, 0x7a, 0xbc,
  0x96, 0x38, 0x0a, 0xbd, 0xae, 0x0c, 0x21, 0x3d, 0x95, 0x58, 0x18, 0x3d,
  0xd3, 0xfb, 0xef, 0xbc, 0xf3, 0x9a, 0xe0, 0xbb, 0x14, 0x40, 0xeb, 0xbc,
  0x35, 0x7a, 0x42, 0x3d, 0x6a, 0x9b, 0x9c, 0xbc, 0x3b, 0x3e, 0x24, 0xbd,
  0xdb, 0xd4, 0x99, 0xbc, 0x9f, 0xe2, 0x84, 0x3b, 0x50, 0x10, 0xec, 0xbc,
  0x6c, 0xa3, 0xf7, 0x3c, 0x04, 0x3e, 0x04, 0x3d, 0xab, 0x66, 0x9a, 0xbc,
  0x5a, 0xb4, 0x33, 0xbd, 0xc0, 0x86, 0x36, 0x3c, 0xe6, 0x71, 0x15, 0x3d,
  0x68, 0x96, 0xd7, 0xbc, 0x6f, 0x2b, 0x33, 0x3d, 0x2f, 0xb3, 0x2c, 0x3c,
  0x59, 0x63, 0xaf, 0x3c, 0x25, 0xda, 0x0b, 0x3d, 0xa4, 0x96, 0x23, 0xbd,
  0x0b, 0x46, 0xe2, 0x3c, 0x27, 0x7b, 0x39, 0x3d, 0xab, 0xe8, 0x92, 0x3c,
  0x9f, 0x6c, 0xec, 0x3c, 0x43, 0x70, 0x5a, 0x3c, 0xe9, 0x25, 0x32, 0x3d,
  0xc2, 0x55, 0x12, 0x3d, 0xe3, 0x2a, 0xdb, 0xbb, 0x22, 0x82, 0xcc, 0xbc,
  0x38, 0xca, 0x99, 0xbc, 0x4d, 0x3a, 0x2e, 0x3d, 0xe4, 0x3c, 0xf7, 0x3b,
  0xff, 0xd0, 0x0e, 0xbd, 0x1a, 0xa9, 0x1a, 0xbd, 0x18, 0x5c, 0x18, 0xbd,
  0x3f, 0x1f, 0x07, 0xbc, 0xa9, 0xc9, 0x5c, 0x3c, 0xf5, 0xb5, 0xde, 0x3c,
  0xba, 0xa6, 0x5d, 0x3c, 0x3d, 0x60, 0x8d, 0xbc, 0xcc, 0x43, 0xe9, 0x3c,
  0x58, 0xe7, 0x15, 0xbd, 0x3f, 0xf3, 0x9a, 0xbc, 0x65, 0x29, 0xab, 0xbc,
  0xa4, 0xe8, 0xbd, 0xbc, 0x38, 0xdb, 0xe6, 0xbc, 0xce, 0xa2, 0xbf, 0x3c,
  0xbc, 0xe0, 0x1f, 0xbd, 0x55, 0x4c, 0x90, 0xbc, 0xe3, 0xd4, 0x20, 0x3d,
  0x13, 0xf0, 0x38, 0x3d, 0x2e, 0xea, 0x1d, 0x3d, 0xac, 0x95, 0xf8, 0xbb,
  0x39, 0x28, 0xb7, 0x3c, 0x4d, 0xb7, 0x01, 0xbd, 0x17, 0x01, 0xa4, 0x3c,
  0x46, 0xf6, 0x10, 0xbc, 0x21, 0x2d, 0x1c, 0x3c, 0xb6, 0x46, 0x0f, 0xbd,
  0xa6, 0x9e, 0x14, 0xbd, 0x88, 0x73, 0x78, 0xbc, 0xfd, 0xd8, 0x09, 0x3d,
  0x9e, 0xd8, 0x05, 0x3d, 0x9e, 0xde, 0x34, 0x3d, 0xec, 0xca, 0x17, 0x3b,
  0xd7, 0xc7, 0x2f, 0x3d, 0x5c, 0xf7, 0x19, 0x3c, 0x55, 0x46, 0x18, 0xbd,
  0x64, 0xff, 0x05, 0x3d, 0x80, 0xaf, 0xf6, 0x3b, 0x07, 0x8a, 0x8d, 0xbc,
  0xa7, 0x86, 0x97, 0xbc, 0xe8, 0xce, 0x8c, 0x3b, 0x3d, 0x10, 0xac, 0x3b,
  0xfe, 0x98, 0x8b, 0xbc, 0xd6, 0x70, 0x5d, 0x3b, 0x53, 0x8e, 0x1b, 0x3d,
  0xe4, 0x93, 0x92, 0x3b, 0xfb, 0x7d, 0xde, 0x3c, 0xd3, 0xa5, 0xef, 0x3c,
  0x19, 0xd7, 0x4c, 0x3c, 0xe7, 0x0d, 0xa6, 0x3b, 0xa0, 0xb9, 0xe0, 0xbc,
  0x6b, 0x93, 0x94, 0xbc, 0x3e, 0xa0, 0x3a, 0xbd, 0xcb, 0xd2, 0x1c, 0x3d,
  0x5a, 0xae, 0x6e, 0x3a, 0xec, 0x30, 0x9b, 0xbc, 0x60, 0xff, 0x4a, 0x3b,
  0xee, 0x0f, 0xea, 0xbb, 0x54, 0x6b, 0xe7, 0x3c, 0x39, 0x42, 0xe5, 0x3a,
  0xe1, 0xcf, 0x1b, 0x3d, 0xe7, 0x01, 0xc5, 0x3c, 0x52, 0xb6, 0x7b, 0xbb,
  0x5d, 0xd2, 0xd0, 0xba, 0x01, 0x70, 0xd1, 0x3c, 0x34, 0xd5, 0x89, 0xbc,
  0xbb, 0x4f, 0x40, 0xbd, 0xf2, 0xf2, 0x05, 0x3c, 0x56, 0x85, 0xbd, 0x3c,
  0xaf, 0xd6, 0xd3, 0x3b, 0x73, 0x7a, 0x41, 0xbd, 0x47, 0x62, 0x78, 0x3c,
  0x75, 0xd7, 0x07, 0xbd, 0x31, 0x15, 0x04, 0x3d, 0x22, 0xf0, 0x52, 0xbc,
  0x65, 0xc6, 0xb8, 0xbc, 0x6c, 0x19, 0x38, 0x3d, 0xc8, 0xf1, 0x15, 0xbd,
  0xaf, 0xec, 0xd5, 0xbc, 0x0e, 0xcc, 0xb2, 0x39, 0xef, 0x8e, 0x37, 0xbc,
  0x34, 0x46, 0x40, 0xbc, 0x2a, 0xb5, 0x19, 0xbd, 0x28, 0x40, 0x3b, 0xbd,
  0x16, 0xc3, 0x19, 0x3d, 0x85, 0x16, 0xcf, 0x3b, 0xf4, 0x6f, 0x6f, 0x3b,
  0xf9, 0xba, 0x82, 0xbc, 0xba, 0x15, 0x52, 0x3c, 0xa9, 0xad, 0x8e, 0xbb,
  0x10, 0xe1, 0x43, 0x3d, 0xd1, 0x1b, 0x25, 0xbd, 0xce, 0x7e, 0x31, 0x3d,
  0x2f, 0xea, 0xc7, 0xbc, 0x70, 0xa5, 0x3f, 0x3d, 0x14, 0x74, 0x46, 0xbc,
  0xbd, 0xa4, 0x22, 0x3a, 0x43, 0x91, 0xbd, 0x3c, 0x63, 0xed, 0xf5, 0x39,
  0x29, 0x57, 0xf0, 0xbc, 0xcd, 0x12, 0x26, 0xbc, 0x8c, 0x3b, 0x08, 0xbd,
  0x66, 0x67, 0xca, 0xbc, 0x53, 0x31, 0x99, 0xbc, 0x03, 0x38, 0x24, 0xbd,
  0x82, 0x54, 0xe1, 0xbc, 0xf7, 0xa8, 0x1a, 0xbc, 0x25, 0x07, 0x0a, 0xbd,
  0xa1, 0x74, 0x40, 0x3d, 0x06, 0x01, 0xa7, 0xbb, 0x87, 0xa4, 0x88, 0xbc,
  0x84, 0x30, 0x0b, 0xbd, 0xf9, 0xd7, 0x3c, 0x39, 0xfe, 0x0b, 0x04, 0xbd,
  0x0c, 0xd9, 0x92, 0x3b, 0x36, 0xd2, 0x2b, 0x3d, 0xc4, 0xfe, 0x97, 0xbc,
  0x4c, 0x09, 0x0b, 0x3d, 0x93, 0xed, 0x93, 0xb9, 0xd0, 0x53, 0x1b, 0x3d,
  0x94, 0x9b, 0x46, 0x3c, 0xe1, 0x0e, 0x07, 0x3c, 0x9f, 0x6b, 0x20, 0x3c,
  0x3d, 0x44, 0x2a, 0xbd, 0x63, 0xef, 0x1b, 0x3d, 0xba, 0x38, 0x84, 0xbc,
  0xb9, 0x29, 0x26, 0x3d, 0x06, 0x54, 0xa9, 0x3c, 0xf7, 0x93, 0x98, 0x3b,
  0x12, 0x9c, 0x21, 0xbd, 0xaf, 0xee, 0x84, 0x3c, 0xe5, 0xc9, 0x2a, 0x3d,
  0xd3, 0x0c, 0x30, 0x3d, 0xb8, 0x02, 0xa3, 0x3c, 0xb6, 0xc3, 0x01, 0xbd,
  0x59, 0x91, 0x2e, 0xbd, 0xa4, 0xa5, 0x46, 0x3d, 0x61, 0xa0, 0x1a, 0xbd,
  0x76, 0x0b, 0x3b, 0xbd, 0x12, 0x1d, 0x5f, 0x3c, 0xf8, 0x76, 0x46, 0x3d,
  0xa2, 0x4e, 0xeb, 0x3c, 0x1f, 0x83, 0x08, 0x3d, 0x9c, 0x30, 0xc0, 0xbc,
  0xa0, 0x64, 0xa4, 0xbc, 0x04, 0x60, 0x3c, 0xbd, 0x91, 0x78, 0x05, 0x3d,
  0x31, 0x6c, 0x94, 0x3c, 0x84, 0xe6, 0x07, 0x3c, 0xab, 0x4f, 0xbf, 0xbc,
  0xda, 0xa7, 0xea, 0xbc, 0x68, 0x2d, 0x84, 0xbc, 0x79, 0xe4, 0x8e, 0xbc,
  0x82, 0xa3, 0xcf, 0x3c, 0x2b, 0xb3, 0x9d, 0x3c, 0x04, 0xbd, 0x09, 0xbc,
  0x1c, 0x79, 0xf7, 0x3c, 0x1f, 0x28, 0xf2, 0x3a, 0xf1, 0xfa, 0x0d, 0x3c,
  0x3c, 0xde, 0x43, 0xbb, 0xb9, 0x3c, 0x25, 0xbd, 0x4a, 0x51, 0x39, 0x3d,
  0x88, 0x0a, 0x37, 0xbd, 0xa9, 0x7a, 0x53, 0xbc, 0xb7, 0x1b, 0x96, 0xbb,
  0x45, 0x20, 0xf3, 0x3b, 0x83, 0x4d, 0xd2, 0x3b, 0xda, 0xb2, 0x2e, 0x3d,
  0xa8, 0xbe, 0x36, 0x3d, 0x6f, 0xe5, 0x7d, 0x3c, 0x98, 0x43, 0x95, 0x3c,
  0x3d, 0x62, 0x0c, 0x3d, 0x24, 0xe8, 0xad, 0xbc, 0x18, 0x03, 0x35, 0xbd,
  0xf3, 0x37, 0xb2, 0xbc, 0xdb, 0x83, 0x83, 0x3c, 0x3d, 0x73, 0x3e, 0xbd,
  0xab, 0x25, 0xd7, 0x3c, 0xbb, 0x30, 0x13, 0x3d, 0xe2, 0x4e, 0x5e, 0xbb,
  0xcc, 0x0e, 0x71, 0xbc, 0x98, 0x5a, 0x03, 0x3d, 0x11, 0xcd, 0xc0, 0x3c,
  0x49, 0x5b, 0xa7, 0xbc, 0x07, 0x4f, 0x30, 0x3b, 0x69, 0x45, 0x04, 0xbc,
  0x9e, 0x85, 0x27, 0x3c, 0x14, 0x30, 0x0b, 0x3d, 0x9c, 0x45, 0x31, 0xbd,
  0x83, 0x32, 0x03, 0x3d, 0x97, 0xa4, 0x8b, 0x3b, 0x4a, 0xdf, 0xdc, 0xbc,
  0x4a, 0xc1, 0xd2, 0x3c, 0x9b, 0x1f, 0x35, 0xbc, 0x30, 0xf0, 0x2b, 0xbd,
  0xac, 0xed, 0xa7, 0xb9, 0xa4, 0x6f, 0x09, 0xbd, 0xc9, 0x3f, 0x2e, 0x3d,
  0xe7, 0x8a, 0x41, 0xbd, 0xd6, 0x51, 0xd6, 0xbc, 0x60, 0xd1, 0x0d, 0xbd,
  0xae, 0xd9, 0x13, 0xbc, 0xc7, 0x3f, 0x36, 0xbd, 0xa9, 0x3f, 0x09, 0x3d,
  0xb0, 0xe1, 0x17, 0xbd, 0xd0, 0xc8, 0x55, 0x3c, 0x5b, 0x3a, 0xcf, 0xbc,
  0x10, 0x3f, 0x2e, 0xbc, 0x3a, 0x1a, 0xe1, 0xbb, 0x5f, 0x29, 0xb3, 0x3c,
  0xbc, 0x68, 0xf5, 0xbc, 0x36, 0xd4, 0xb2, 0xbc, 0x38, 0xdb, 0xc9, 0x3b,
  0xec, 0x7c, 0x03, 0x3d, 0xb8, 0xfa, 0x4d, 0xbd, 0x05, 0x47, 0x28, 0xba,
  0xcb, 0x3b, 0x76, 0x3c, 0xf5, 0x3a, 0x37, 0x3c, 0x33, 0x36, 0x31, 0xbd,
  0x4d, 0x8d, 0x01, 0x3d, 0x5a, 0x59, 0x0f, 0xbc, 0x34, 0x90, 0x31, 0xbd,
  0xc2, 0x2a, 0x06, 0xbb, 0xfb, 0x7d, 0xfd, 0xbb, 0xc3, 0x32, 0xfc, 0x3c,
  0xd1, 0x85, 0xe6, 0x3b, 0x1b, 0x98, 0x30, 0x3d, 0xc2, 0x2f, 0x2a, 0x3d,
  0x77, 0x9f, 0x28, 0xbd, 0x82, 0x75, 0x77, 0xbc, 0x44, 0x56, 0x05, 0x3b,
  0x99, 0x19, 0xd7, 0x3c, 0xf4, 0xa3, 0xaf, 0xbc, 0xd4, 0xb9, 0x29, 0x3d,
  0xb6, 0x16, 0x32, 0x3d, 0x52, 0x4c, 0x43, 0x3d, 0x08, 0x09, 0xae, 0x3c,
  0xb8, 0xe2, 0x3e, 0xbc, 0xb0, 0x7b, 0xbc, 0xbc, 0x5a, 0x07, 0xc5, 0xbc,
  0xce, 0x41, 0xa4, 0xbc, 0x96, 0xdb, 0x89, 0xbc, 0x7a, 0xb8, 0x55, 0x3c,
  0x13, 0x85, 0x58, 0x3c, 0x74, 0xc1, 0x2b, 0x3c, 0x7c, 0xa7, 0x27, 0x3d,
  0xc6, 0xdf, 0x01, 0xbd, 0xd3, 0xb3, 0x1b, 0xbd, 0x61, 0xf1, 0xe9, 0x3b,
  0x21, 0x22, 0x45, 0xbd, 0xcf, 0xbc, 0x34, 0xbc, 0xd1, 0x1f, 0x1b, 0xbd,
  0x72, 0x8e, 0x03, 0xbd, 0xc6, 0xd6, 0x40, 0x3d, 0x44, 0x1f, 0x30, 0xbc,
  0xb2, 0xa7, 0x0b, 0x3d, 0x39, 0xc9, 0xa3, 0xbc, 0x98, 0xb4, 0x0f, 0xbd,
  0x59, 0xe3, 0xf1, 0x3c, 0x39, 0x55, 0xfd, 0x3c, 0x02, 0x9f, 0x80, 0x3c,
  0xe8, 0x89, 0xfb, 0x3c, 0x09, 0xb0, 0xc4, 0x3b, 0x92, 0xf8, 0x32, 0xbc,
  0xc2, 0x7b, 0xda, 0xbc, 0xce, 0x76, 0x3f, 0xbd, 0x39, 0xb6, 0x84, 0x3b,
  0x60, 0x64, 0x05, 0x3d, 0x18, 0x73, 0xf8, 0x3c, 0xb1, 0x3c, 0x07, 0x3c,
  0xf5, 0x73, 0x99, 0xbc, 0x53, 0x5e, 0xae, 0xbc, 0x51, 0xd3, 0x28, 0xbc,
  0xcb, 0xa9, 0xda, 0x3b, 0x1b, 0xaa, 0x3b, 0xbd, 0x5a, 0x85, 0x27, 0xbb,
  0x88, 0x6a, 0x12, 0x3d, 0x86, 0xcd, 0x4b, 0xbb, 0x88, 0x5b, 0xe8, 0xbb,
  0x38, 0x36, 0x57, 0x3a, 0x8f, 0xa3, 0x1d, 0x3d, 0x5f, 0x90, 0x16, 0x3d,
  0x19, 0x2b, 0x9d, 0x3c, 0x41, 0x0a, 0x24, 0xbd, 0xde, 0x68, 0x8f, 0x3c,
  0x29, 0x3c, 0xf0, 0x3c, 0xda, 0x44, 0x00, 0x3d, 0x78, 0x41, 0x47, 0x3d,
  0xeb, 0x2e, 0xe1, 0xbc, 0x1e, 0x9a, 0x45, 0xbd, 0xa7, 0x75, 0x41, 0x3d,
  0x8f, 0xea, 0x91, 0xbc, 0xb8, 0x40, 0x2e, 0xbd, 0x50, 0x81, 0x11, 0xbd,
  0x90, 0x18, 0x14, 0x3b, 0x14, 0x41, 0x8b, 0x3b, 0x3c, 0x6e, 0x2c, 0xbc,
  0x7a, 0x99, 0x08, 0xbc, 0x11, 0xf4, 0x5b, 0xbb, 0x77, 0x67, 0x32, 0xbd,
  0xd2, 0x9c, 0x2a, 0x3c, 0xa3, 0xee, 0x33, 0x3d, 0x00, 0xf2, 0x8b, 0xbc,
  0xa3, 0x1f, 0x91, 0xbc, 0xb6, 0x87, 0x2c, 0xbd, 0x9b, 0x1d, 0xb9, 0x3c,
  0xfb, 0x88, 0x32, 0xbd, 0x4c, 0x59, 0x23, 0x3b, 0x71, 0xa8, 0xfa, 0xbb,
  0x0f, 0xdc, 0x48, 0x3d, 0x25, 0x33, 0x3a, 0x3d, 0xb8, 0x90, 0xc0, 0x3c,
  0xcd, 0x44, 0x64, 0xbc, 0x6f, 0x36, 0x42, 0xbd, 0xd2, 0x6e, 0xb4, 0x3c,
  0xc8, 0xda, 0x06, 0x3d, 0x87, 0x90, 0x79, 0xbc, 0xe9, 0xcf, 0x1b, 0xbd,
  0x0a, 0xa9, 0x58, 0xbc, 0xb1, 0xd5, 0x25, 0xbc, 0xdb, 0x55, 0x49, 0x3c,
  0xf3, 0xdd, 0x8c, 0xbc, 0x59, 0x1c, 0x49, 0x3d, 0x13, 0x1b, 0x7c, 0x3c,
  0x89, 0xb2, 0xe6, 0x3c, 0xeb, 0x96, 0x1b, 0xbd, 0x56, 0x16, 0x10, 0xbd,
  0x41, 0x52, 0x16, 0x3b, 0x32, 0x71, 0x0a, 0xbc, 0xfb, 0x64, 0x2c, 0x3d,
  0x0c, 0x1a, 0x34, 0x3d, 0xa8, 0x65, 0x65, 0x39, 0x3e, 0x11, 0x53, 0x3c,
  0x8a, 0x51, 0x16, 0xbd, 0xff, 0x01, 0x82, 0x3b, 0x0c, 0x53, 0xdf, 0x3b,
  0x1f, 0x80, 0xef, 0x3c, 0x92, 0xdc, 0x1f, 0x3d, 0x2b, 0x46, 0x04, 0xbd,
  0xd6, 0x50, 0xe6, 0xbb, 0x9d, 0x33, 0x96, 0x3c, 0x8e, 0x17, 0x1d, 0xbb,
  0x82, 0xe2, 0xf4, 0xba, 0x05, 0xb3, 0xcc, 0x3b, 0xd4, 0x34, 0x3c, 0x3d,
  0x08, 0xf6, 0xa3, 0x3b, 0x93, 0x34, 0x4b, 0xbc, 0xf5, 0xf8, 0x65, 0x3c,
  0x32, 0xe2, 0x2f, 0x3d, 0xa7, 0xc4, 0x22, 0xbd, 0x34, 0xba, 0x06, 0xbc,
  0x55, 0xb4, 0x00, 0x3d, 0x08, 0x68, 0x82, 0x3c, 0x15, 0xeb, 0x40, 0xbc,
  0x72, 0x6c, 0x5e, 0x3c, 0x2a, 0x17, 0xee, 0xbc, 0x3a, 0x80, 0x0a, 0xbc,
  0x8d, 0x86, 0x53, 0xbc, 0xb4, 0x3f, 0x22, 0x36, 0x51, 0x36, 0x7e, 0x3c,
  0x68, 0x1a, 0x00, 0xbc, 0xbf, 0x0a, 0xf2, 0xbc, 0xef, 0xa0, 0x37, 0xbd,
  0x98, 0xac, 0xf8, 0x3c, 0x61, 0xbb, 0x37, 0xbd, 0x6a, 0xca, 0x15, 0x3d,
  0x80, 0x57, 0x73, 0xba, 0x48, 0x9b, 0x18, 0xbc, 0xc8, 0x33, 0x3e, 0xbc,
  0x1b, 0x8f, 0xbd, 0xbc, 0xff, 0x8f, 0xa9, 0x3c, 0x59, 0xa2, 0x97, 0xbc,
  0x48, 0x01, 0x06, 0x3c, 0x14, 0xa7, 0x70, 0xbc, 0x08, 0xd9, 0xbd, 0x3b,
  0x63, 0x68, 0xc9, 0x3a, 0xa7, 0xe1, 0x66, 0xbc, 0xc4, 0xb3, 0x95, 0xbc,
  0xda, 0xac, 0x99, 0x3b, 0xdd, 0xa3, 0x0e, 0x3d, 0x35, 0x00, 0x49, 0x3d,
  0xc8, 0xab, 0xa5, 0x3c, 0x97, 0x6d, 0x1d, 0x3b, 0xdc, 0x8a, 0x02, 0xbd,
  0x66, 0x39, 0xcf, 0x3c, 0xf2, 0x18, 0xa2, 0x3c, 0x5e, 0xb7, 0x0c, 0xbd,
  0xb7, 0xbb, 0xac, 0x3b, 0x11, 0x3a, 0x28, 0xbd, 0xf0, 0xaf, 0xed, 0x3c,
  0xe2, 0xd3, 0x0f, 0x3d, 0xc5, 0x7b, 0x2f, 0xbd, 0x77, 0xd0, 0x15, 0xbd,
  0x47, 0xc2, 0x24, 0xbc, 0xef, 0x0d, 0x44, 0xbd, 0xb9, 0x67, 0xcd, 0xbc,
  0xfb, 0x7f, 0x44, 0xbd, 0x7b, 0x37, 0xe3, 0x3c, 0xc2, 0x26, 0x87, 0xbc,
  0xee, 0x7f, 0x7e, 0xbc, 0x14, 0x4b, 0xa5, 0x3c, 0x94, 0x01, 0x01, 0x3d,
  0x7d, 0xb3, 0x32, 0xbd, 0x36, 0xea, 0xf0, 0xbc, 0xd1, 0x19, 0xcc, 0xbc,
  0xb2, 0x2b, 0x2f, 0x3d, 0x71, 0x33, 0xce, 0xbc, 0x9f, 0xa9, 0xa1, 0xbc,
  0x20, 0x0b, 0x6e, 0x3c, 0xac, 0x81, 0x79, 0xbc, 0x2f, 0x1a, 0x21, 0x3d,
  0xae, 0xef, 0xa0, 0x3c, 0x3a, 0x06, 0x53, 0x3c, 0x83, 0xae, 0x25, 0x3d,
  0xf7, 0xfe, 0xd6, 0xbb, 0xa8, 0xca, 0